{"<|endoftext|>":0,"<|im_start|>":1,"<|im_end|>":2,"<|object_ref_start|>":3,"<|object_ref_end|>":4,"<|box_start|>":5,"<|box_end|>":6,"<|quad_start|>":7,"<|quad_end|>":8,"<|vision_start|>":9,"<|vision_end|>":10,"<|vision_pad|>":11,"<|image_pad|>":12,"<|video_pad|>":13,"<|audio_start|>":14,"<|audio_end|>":15,"<|audio_pad|>":16,"<tts_pad>":17,"<tts_text_bos>":18,"<tts_text_eod>":19,"<tts_text_bos_single>":20,"<tool_call>":21,"</tool_call>":22,"<tool_response>":23,"</tool_response>":24,"<think>":25,"</think>":26,"<|buffer1|>":27,"<|buffer2|>":28,"<|buffer3|>":29,"<|buffer4|>":30,"<|buffer5|>":31,"<|buffer6|>":32,"<|buffer7|>":33,"<|buffer8|>":34,"<|buffer9|>":35,"!":36,"\"":37,"#":38,"$":39,"%":40,"&":41,"'":42,"(":43,")":44,"*":45,"+":46,",":47,"-":48,".":49,"/":50,"0":51,"1":52,"2":53,"3":54,"4":55,"5":56,"6":57,"7":58,"8":59,"9":60,":":61,";":62,"<":63,"=":64,">":65,"?":66,"@":67,"A":68,"B":69,"C":70,"D":71,"E":72,"F":73,"G":74,"H":75,"I":76,"J":77,"K":78,"L":79,"M":80,"N":81,"O":82,"P":83,"Q":84,"R":85,"S":86,"T":87,"U":88,"V":89,"W":90,"X":91,"Y":92,"Z":93,"[":94,"\\":95,"]":96,"^":97,"_":98,"`":99,"a":100,"b":101,"c":102,"d":103,"e":104,"f":105,"g":106,"h":107,"i":108,"j":109,"k":110,"l":111,"m":112,"n":113,"o":114,"p":115,"q":116,"r":117,"s":118,"t":119,"u":120,"v":121,"w":122,"x":123,"y":124,"z":125,"{":126,"|":127,"}":128,"~":129,"¡":130,"¢":131,"£":132,"¤":133,"¥":134,"¦":135,"§":136,"¨":137,"©":138,"ª":139,"«":140,"¬":141,"®":142,"¯":143,"°":144,"±":145,"²":146,"³":147,"´":148,"µ":149,"¶":150,"·":151,"¸":152,"¹":153,"º":154,"»":155,"¼":156,"½":157,"¾":158,"¿":159,"À":160,"Á":161,"Â":162,"Ã":163,"Ä":164,"Å":165,"Æ":166,"Ç":167,"È":168,"É":169,"Ê":170,"Ë":171,"Ì":172,"Í":173,"Î":174,"Ï":175,"Ð":176,"Ñ":177,"Ò":178,"Ó":179,"Ô":180,"Õ":181,"Ö":182,"×":183,"Ø":184,"Ù":185,"Ú":186,"Û":187,"Ü":188,"Ý":189,"Þ":190,"ß":191,"à":192,"á":193,"â":194,"ã":195,"ä":196,"å":197,"æ":198,"ç":199,"è":200,"é":201,"ê":202,"ë":203,"ì":204,"í":205,"î":206,"ï":207,"ð":208,"ñ":209,"ò":210,"ó":211,"ô":212,"õ":213,"ö":214,"÷":215,"ø":216,"ù":217,"ú":218,"û":219,"ü":220,"ý":221,"þ":222,"ÿ":223,"Ā":224,"ā":225,"Ă":226,"ă":227,"Ą":228,"ą":229,"Ć":230,"ć":231,"Ĉ":232,"ĉ":233,"Ċ":234,"ċ":235,"Č":236,"č":237,"Ď":238,"ď":239,"Đ":240,"đ":241,"Ē":242,"ē":243,"Ĕ":244,"ĕ":245,"Ė":246,"ė":247,"Ę":248,"ę":249,"Ě":250,"ě":251,"Ĝ":252,"ĝ":253,"Ğ":254,"ğ":255,"Ġ":256,"ġ":257,"Ģ":258,"ģ":259,"Ĥ":260,"ĥ":261,"Ħ":262,"ħ":263,"Ĩ":264,"ĩ":265,"Ī":266,"ī":267,"Ĭ":268,"ĭ":269,"Į":270,"į":271,"İ":272,"ı":273,"Ĳ":274,"ĳ":275,"Ĵ":276,"ĵ":277,"Ķ":278,"ķ":279,"ĸ":280,"Ĺ":281,"ĺ":282,"Ļ":283,"ļ":284,"Ľ":285,"ľ":286,"Ŀ":287,"ŀ":288,"Ł":289,"ł":290,"Ń":291,"Ġt":292,"Ġa":293,"in":294,"he":295,"er":296,"Ġthe":297,"on":298,"re":299,"at":300,"Ġs":301,"Ġc":302,"Ġo":303,"is":304,"nd":305,"es":306,"en":307,"or":308,"ing":309,"it":310,"**":311,"an":312,"Ġf":313,"al":314,"ĠĠ":315,"Ġand":316,"Ġp":317,"Ġin":318,"ion":319,"Ġof":320,"le":321,"ar":322,"ic":323,"ou":324,"Ġw":325,"Ġm":326,"Ġd":327,"Ġto":328,"Ġb":329,"ed":330,"ct":331,"om":332,"Ġis":333,"Ġn":334,"Ġl":335,"ï¼":336,"Ġe":337,"Ġ**":338,"Ġre":339,"ent":340,"st":341,"um":342,"ro":343,"et":344,"ers":345,"ĊĠĠ":346,"as":347,"Ġu":348,"ĠT":349,"Ġth":350,"ut":351,"ä¸":352,"im":353,"ation":354,"Ġh":355,"Ġ\\":356,"el":357,"ra":358,"il":359,"ãĢ":360,"ce":361,"**:":362,"Ġy":363,"çļ":364,"çļĦ":365,"if":366,"ï¼Į":367,"ur":368,"ch":369,"ig":370,"Ġfor":371,"ul":372,"id":373,"iv":374,"Ġg":375,"ly":376,"ow":377,"Ġst":378,"ol":379,"ab":380,"Ġyou":381,"am":382,"th":383,"ĠI":384,"ĠC":385,"se":386,"ist":387,"Ġcan":388,"Ġit":389,"un":390,"Ġ`":391,"ĠA":392,"Ġ=":393,"Ġthat":394,"ge":395,"ate":396,"umb":397,"ction":398,"ãĢĤ":399,"Ġ-":400,"``":401,"Ġpro":402,"pl":403,"Ġcon":404,"qu":405,"Ġv":406,"ith":407,"ĠThe":408,"ec":409,"od":410,"ot":411,"Ġon":412,"Ġor":413,"Ġ1":414,"ain":415,"äº":416,"æľ":417,"Ġas":418,"Ġcom":419,"ĠS":420,"Ġwith":421,"åı":422,"ple":423,"ess":424,"ir":425,"Ġnumb":426,"ment":427,"Ġare":428,"ä»":429,"Ġ(":430,"ata":431,"##":432,"Ġwh":433,"ver":434,"ter":435,"ä½":436,"ure":437,"ity":438,"ĠP":439,"Ġus":440,"ĊĠĠĠ":441,"ib":442,"Ġle":443,"unction":444,"Ġal":445,"Ġex":446,"Ġbe":447,"Ġfunction":448,"Ġan":449,"åĬ":450,"ve":451,"Ġsu":452,"age":453,"ad":454,"Ġ2":455,"rom":456,"è¿":457,"est":458,"Ġ\"":459,"his":460,"åħ":461,"put":462,"ore":463,"ĠE":464,"çĶ":465,"em":466,"ial":467,"ck":468,"per":469,"Ġdata":470,"ort":471,"ï¼ļ":472,"ke":473,"å®":474,"åĪ":475,"ies":476,"Ġ\\(":477,"'s":478,"her":479,"igh":480,"ant":481,"ay":482,"us":483,"te":484,"Ġby":485,"Ġlist":486,"pt":487,"iz":488,"yth":489,"and":490,"art":491,"Ġen":492,"ive":493,"int":494,"Ġma":495,"Ġch":496,"ud":497,"**ï¼ļ":498,"ython":499,"Ġne":500,"ns":501,"ect":502,"Ġde":503,"Ġhe":504,"æĪ":505,"å¤":506,"ĠThis":507,"ĠF":508,"ring":509,"Ġfrom":510,"```":511,"æķ":512,"Ġnumber":513,"pp":514,"ĠH":515,"Ġsp":516,"åĴ":517,"arn":518,"Ġr":519,"The":520,"ific":521,"è®":522,"orm":523,"ind":524,"ich":525,"ine":526,"éĢ":527,"ary":528,"ust":529,"Ġinc":530,"lo":531,"åĴĮ":532,"ult":533,"ight":534,"ãĢģ":535,"çĶ¨":536,"åĲ":537,"Ġpr":538,"ide":539,"æĸ":540,"res":541,"act":542,"ç»":543,"ations":544,"nt":545,"ĠD":546,"ance":547,"op":548,"Ġwhich":549,"ue":550,"ĠĠĠĠ":551,"ld":552,"Ġ3":553,"ĠM":554,"ical":555,"åľ":556,"ence":557,"è¯":558,"Ġret":559,"ĠB":560,"Ġwor":561,"able":562,"form":563,"ach":564,"cc":565,"ff":566,"os":567,"og":568,"Ġim":569,"Ġ+":570,"Ġretur":571,"ang":572,"###":573,"lud":574,"æĺ":575,"Ġlearn":576,"Ġif":577,"oud":578,"Ġ\\)":579,"ile":580,"ill":581,"oc":582,"ions":583,"loud":584,"Ġse":585,"all":586,"are":587,"Ġinclud":588,"ri":589,"tain":590,"åº":591,"ä¸Ģ":592,"ä»¥":593,"rou":594,"ĠO":595,"du":596,"åŃ":597,"Ġres":598,"ĠR":599,"Ġnumbers":600,"ign":601,"ample":602,"åı¯":603,"ĥ½":604,"Ġmod":605,"Ġte":606,"Ġwe":607,"Ġmore":608,"Ġha":609,"éĩ":610,"etw":611,"åĮ":612,"out":613,"Ġme":614,"fer":615,"Ġits":616,"ans":617,"ost":618,"ĠW":619,"Ġall":620,"ice":621,"å¸":622,"ous":623,"Ġyour":624,"erv":625,"ä¹":626,"Ġqu":627,"ĠPython":628,"Ġpl":629,"Ġprov":630,"Ġad":631,"ĠL":632,"æķ°":633,"vel":634,"Ġstring":635,"èĥ½":636,"Ġ5":637,"Ġnot":638,"æį":639,"Ġwhe":640,"Ġsh":641,"ase":642,"Ġint":643,"ther":644,"ag":645,"ates":646,"Ġuse":647,"ire":648,"lib":649,"ĠG":650,"Ġhel":651,"ĠIt":652,"ĠN":653,"âĢ":654,"Ġhelp":655,"xt":656,"ä¼":657,"our":658,"ame":659,"Ġlearning":660,"Ġval":661,"Ġhave":662,"00":663,"ru":664,"ass":665,"ord":666,"ks":667,"oo":668,"ä¸ª":669,"Ġun":670,"ep":671,"Ġcont":672,"ces":673,"ime":674,"æį®":675,"å¼":676,"ap":677,"Ġab":678,"Ġat":679,"Ġthis":680,"åľ¨":681,"Ġtr":682,"è§":683,"¦Ĥ":684,"ä¿":685,"ener":686,"çŃ":687,"aba":688,"ict":689,"king":690,"ĠEx":691,"ite":692,"ĠCh":693,"Ġsec":694,"Ġ4":695,"libaba":696,"Ġsc":697,"ast":698,"Ġhas":699,"æĺ¯":700,"ef":701,"ated":702,"æĹ":703,"æı":704,"Ġ#":705,"ere":706,"ä½ł":707,"æĬ":708,"Ġro":709,"ĊĠĠĠĠĠĠ":710,"å¦Ĥ":711,"ard":712,"so":713,"Ġtra":714,"ike":715,"å·":716,"ell":717,"Ġsy":718,"ĠCloud":719,"Ġpre":720,"Ġreturn":721,"Ġev":722,"Ġused":723,"Ġspec":724,"Ġimp":725,"heck":726,"Ġacc":727,"ĠU":728,"åı¯ä»¥":729,"Ġpart":730,"æĢ":731,"end":732,"Ġem":733,"Ġcre":734,"Ġ0":735,"Ġman":736,"Ġcomp":737,"æıĲ":738,"gh":739,"Wh":740,"Ġfind":741,"Ġsum":742,"Ġserv":743,"æĿ":744,"Ġra":745,"ari":746,"numb":747,"ĠIf":748,"æŀ":749,"Ġeach":750,"ount":751,"ments":752,"Ġtheir":753,"ç®":754,"Ġup":755,"Ġother":756,"ices":757,"\\)":758,"ip":759,"å¯":760,"å°":761,"Ġinter":762,"ory":763,"Ġout":764,"ram":765,"æľī":766,"Ġneed":767,"åĩ":768,"çĲ":769,"teg":770,"æķ°æį®":771,"Ġ'":772,"ĠIn":773,"ong":774,"Ġusing":775,"In":776,"ures":777,"åĽ":778,"ĠAlibaba":779,"pr":780,"Ġcomm":781,"Ġar":782,"ition":783,"plic":784,"ient":785,"Ġmodel":786,"è¡":787,"çĽ":788,"ility":789,"Ġgener":790,"cul":791,"Ġcomput":792,"éĹ":793,"erm":794,"ä¾":795,"çŃī":796,"vis":797,"ten":798,"Ġrec":799,"Ġfe":800,"ress":801,"Ġsuch":802,"é¢":803,"ffic":804,"ä¸Ń":805,"ating":806,"low":807,"Ġk":808,"led":809,"çĲĨ":810,"Ġsim":811,"ange":812,"ac":813,"æł":814,"ç½":815,"ertain":816,"nder":817,"Ġx":818,"Ġele":819,"Ġalso":820,"Ġcol":821,"ak":822,"ely":823,"vers":824,"Ġinteg":825,"ould":826,"åĨ":827,"Ġgo":828,"Ġvari":829,"yp":830,"alcul":831,"iven":832,"\\[":833,"Ġchar":834,"What":835,"Ġlike":836,"Ġabout":837,"ie":838,"Ġsign":839,"åĬ¡":840,"Ġpo":841,"pervis":842,"ues":843,"Ġdif":844,"Ġper":845,"ĠChin":846,"æĭ":847,"ual":848,"fra":849,"ome":850,"çī":851,"ear":852,"pervised":853,"stem":854,"Ġnew":855,"æĮ":856,"æ³":857,"ç§":858,"Ġwhere":859,"ack":860,"çİ":861,"å¹":862,"Ġcl":863,"Ġinto":864,"Ġdes":865,"éĢļ":866,"æİ":867,"æī":868,"è¦":869,"åŃ¦":870,"ĊĠĠĠĠĠĠĠ":871,"ace":872,"own":873,"Ġwill":874,"è¿Ļ":875,"Ġap":876,"è¿ĩ":877,"Ġform":878,"è¦ģ":879,"ph":880,"cess":881,"Ġmain":882,"een":883,"irst":884,"Ġdiffer":885,")`":886,":**":887,"one":888,"ndom":889,"eth":890,"ative":891,"etween":892,"Ġexample":893,"ens":894,"æĢ§":895,"av":896,"ertainly":897,"Ġhow":898,"ond":899,"Ġbetween":900,"Ġapp":901,"Certainly":902,"äºĨ":903,"Ġany":904,"ĠHere":905,"Ġprovid":906,"Ġbut":907,"ower":908,"python":909,"Ġ[":910,"Ġmost":911,"velop":912,"æĶ":913,"Ġ6":914,"Ġsignific":915,"ail":916,"print":917,"æĹ¶":918,"ä¸į":919,"rough":920,"ä½¿":921,"Ġover":922,"Ġdo":923,"ork":924,"ustom":925,"Ġspecific":926,"åį":927,"Ġlar":928,"Ġunder":929,"duct":930,"Ġdis":931,"anc":932,"olog":933,"Ġke":934,"éĺ":935,"Ġtyp":936,"chn":937,"iness":938,"}{":939,"les":940,"éĿ":941,"Ġthey":942,"Ġone":943,"ĠFor":944,"Ġind":945,"numbers":946,").":947,"Ġcheck":948,"Ġincluding":949,"),":950,"ased":951,"Ġprocess":952,"frac":953,"Ġthese":954,"æĬĢ":955,"ject":956,"Ġsystem":957,"oy":958,"ful":959,"Ġcharact":960,"æĸ¹":961,"its":962,"ular":963,"ĠJ":964,"ize":965,"ä¿Ŀ":966,"eng":967,"omm":968,"ode":969,"äºİ":970,"ry":971,"urity":972,"Ġoften":973,"åºĶ":974,"Ġapplic":975,"ath":976,"):":977,"Ġ\\]":978,"Ġens":979,"æĪĲ":980,"Ġset":981,"dict":982,"åĮĸ":983,"åŁ":984,"ĠSt":985,"åıĳ":986,"rib":987,"å¯¹":988,"ub":989,"ery":990,"cy":991,"ities":992,"Ġnetw":993,"rite":994,"ç¨":995,"Ġprog":996,"ree":997,"ĊĠĠĠĠ":998,"Ġtechn":999,"Ġdec":1000,"è´":1001,"Ġfirst":1002,"usiness":1003,"Ġdet":1004,"Ġeven":1005,"ors":1006,"ç¡":1007,"ï¼Ī":1008,"ï¼ī":1009,"Ġdevelop":1010,"Ġtrans":1011,"formation":1012,"Ġthrough":1013,"ose":1014,"Ġadd":1015,"è¡Į":1016,"pport":1017,"æľį":1018,"row":1019,"Ġprovide":1020,"ible":1021,"ä¸Ģä¸ª":1022,"Ġworld":1023,"ft":1024,"Ġvalue":1025,"å¥":1026,"This":1027,"èĢ":1028,"Ġfil":1029,"ä½¿çĶ¨":1030,"Ġkn":1031,"æĽ":1032,"Ġprint":1033,"Ġso":1034,"æľ¯":1035,"Ġequ":1036,"ĠY":1037,"angu":1038,"Ġcons":1039,"Ġreturns":1040,"Ġno":1041,"Ġ20":1042,"ark":1043,"äºĽ":1044,"ä¸º":1045,"reat":1046,"Ġcalcul":1047,"é«":1048,"é«ĺ":1049,"Ġrel":1050,"ized":1051,"ural":1052,"text":1053,"Ġprogram":1054,"oth":1055,"Ġsol":1056,"ne":1057,"âĢĻ":1058,"ics":1059,"æµ":1060,"uring":1061,"word":1062,"åĪĨ":1063,"Ġbusiness":1064,"æĪĸ":1065,"è®¡":1066,"Ġthem":1067,"æĽ´":1068,"Ġinput":1069,"ä¹ł":1070,"æŃ":1071,"èĩ":1072,"Ġaccess":1073,"Ġcomple":1074,"ruct":1075,"ook":1076,"æľįåĬ¡":1077,"Ġreg":1078,"éľ":1079,"ĠAI":1080,"pect":1081,"stand":1082,"Ġpartic":1083,"å¾":1084,"ational":1085,"åĲĪ":1086,"ons":1087,"Ġkey":1088,"æĬĢæľ¯":1089,"å½":1090,"å¿":1091,"Ġinclude":1092,"xim":1093,"Ġwas":1094,"atter":1095,"éľĢ":1096,"Ġprim":1097,"Ġgiven":1098,"Ġ10":1099,"è§£":1100,"string":1101,"urre":1102,"å±":1103,"plan":1104,"Ġsimple":1105,"Ġtw":1106,"Ġresult":1107,"ability":1108,"äºº":1109,"ä½ľ":1110,"Ġsignificant":1111,"Ġtas":1112,"ese":1113,"Ġlangu":1114,"Ġpoint":1115,"Ġj":1116,"è¿Ľ":1117,"Ġinformation":1118,"å»":1119,"erson":1120,"Ġblo":1121,"ä¸ĭ":1122,"Ġonly":1123,"Ġeffic":1124,"ound":1125,"ethod":1126,"ç¨ĭ":1127,"dd":1128,"ents":1129,"Ġmult":1130,"ature":1131,"Ġterm":1132,"Ġthan":1133,"å®ī":1134,"ia":1135,"å®ŀ":1136,"éĩı":1137,"åĬ©":1138,"Ġinst":1139,"åŃ¦ä¹ł":1140,"Ġph":1141,"ä¸ļ":1142,"def":1143,"ä¾Ľ":1144,"éĢļè¿ĩ":1145,"Ġapplications":1146,"å®ļ":1147,"ĠExample":1148,"ds":1149,"ally":1150,"ç¡®":1151,"æľº":1152,"æĿ¥":1153,"Ġfol":1154,"ĠQ":1155,"Ġrandom":1156,"ç½ĳ":1157,"Ġass":1158,"Ġpass":1159,"Ġcreate":1160,"å»º":1161,"ays":1162,"ribut":1163,"Ġ8":1164,"au":1165,"iqu":1166,"`.":1167,"Ġwho":1168,"Ġfile":1169,"å¤§":1170,"Ġvarious":1171,"Ġservices":1172,"To":1173,"gy":1174,"å¥½":1175,"åĬ¨":1176,"Ġtechnolog":1177,"Ġcustom":1178,"Ġoutput":1179,"Ġlab":1180,"Ġallow":1181,"upervised":1182,"Ġsm":1183,"éĹ®":1184,"planation":1185,"åŀ":1186,"Ġcloud":1187,"Ġrem":1188,"cept":1189,"æĸĩ":1190,"ify":1191,"Ġsecurity":1192,"åĬł":1193,"gest":1194,"ä¸Ĭ":1195,"rit":1196,"Ġtime":1197,"æıĲä¾Ľ":1198,"ĠChinese":1199,"Ġrange":1200,"Ġfollow":1201,"åħ¨":1202,"Ġnetwork":1203,"çĶŁ":1204,"Ġmethod":1205,"ç®Ĺ":1206,"ript":1207,"å¤ļ":1208,"åĪ°":1209,"Ġunderstand":1210,"ax":1211,"Ġboth":1212,"ience":1213,"Ġhand":1214,"Ġperform":1215,"æĮģ":1216,"åŀĭ":1217,"\\]":1218,"Ġpos":1219,"ically":1220,"bs":1221,"Ġhis":1222,"Ġtwo":1223,"Ġoff":1224,"ples":1225,"ĊĠ":1226,"ctions":1227,"ĠExplanation":1228,"ength":1229,"Ġhigh":1230,"æĪ·":1231,"Ġdifferent":1232,"ases":1233,"è¾":1234,"\",":1235,"æĻ":1236,"Ġlo":1237,"èµ":1238,"Ġmach":1239,"ract":1240,"éĻ":1241,"date":1242,"Ġent":1243,"æ¨":1244,"ç«":1245,"Ġmaking":1246,"æ¨¡":1247,"vert":1248,"ily":1249,"åĵ":1250,"Ġhum":1251,"Ġpur":1252,"Ġpar":1253,"Ġcode":1254,"è½":1255,"Ġdat":1256,"Ġrep":1257,"Ġam":1258,"Ġsqu":1259,"å·¥":1260,"imes":1261,"Ġco":1262,"æ³ķ":1263,"ined":1264,"Ġshould":1265,"Ġvalues":1266,"Write":1267,"äºĳ":1268,"Ġlead":1269,"ffect":1270,"ages":1271,"Ġthere":1272,"Ġyear":1273,"ploy":1274,"Ġ{":1275,"Ġsumm":1276,"bject":1277,"con":1278,"',":1279,"Ġproduct":1280,"Ġimport":1281,"Ġbased":1282,"ise":1283,"Ġsupport":1284,"ĊĠĠĠĠĊĠĠĠ":1285,"ov":1286,"å¸®":1287,"èĩª":1288,"Ġlif":1289,"æ±":1290,"Ġmake":1291,"éĢī":1292,"Ġexp":1293,"Ġtasks":1294,"åºĶçĶ¨":1295,"å¼Ģ":1296,"ĠHow":1297,"è®¾":1298,"Ġblock":1299,"urrent":1300,"Ġmachine":1301,"æĸ°":1302,"atures":1303,"Ġredu":1304,"als":1305,"ç³":1306,"éĿ¢":1307,"Ġfact":1308,"ources":1309,"()`":1310,"ys":1311,"Ġsome":1312,"é¡":1313,"ĠK":1314,"Ġdist":1315,"Ġperson":1316,"Ġway":1317,".\"":1318,"round":1319,"ique":1320,"Ġpower":1321,"wen":1322,"Ġgenerate":1323,"Ġoper":1324,"Ġusage":1325,"verage":1326,"Ġdesign":1327,"Ġbec":1328,"éĩĮ":1329,"Ġstr":1330,"akes":1331,"åĳ":1332,"Ġmat":1333,"ä¼ļ":1334,"))":1335,"lect":1336,"ä¸İ":1337,"nsupervised":1338,"utput":1339,"Ġexpl":1340,"Ġlanguage":1341,"ware":1342,"å¸®åĬ©":1343,"Ġpop":1344,"Ġefficient":1345,"Ġmulti":1346,"Ġdep":1347,"alth":1348,"Ġrequ":1349,"Ġcomputing":1350,"Ġcomplex":1351,"els":1352,"Ġmy":1353,"Ġ100":1354,"æŀľ":1355,"Ġdiv":1356,"æĦ":1357,"Ġwant":1358,"ause":1359,"Ġinv":1360,"co":1361,"æľ¬":1362,"ructure":1363,"ob":1364,"Ġcurrent":1365,"Ġwhen":1366,"Ġtext":1367,"åĲĮ":1368,"irect":1369,"Ġwhile":1370,"ss":1371,"å¸¸":1372,"Ġappro":1373,"`,":1374,"Ġintern":1375,"åľ°":1376,"åĻ":1377,"Ġcor":1378,"ä»¶":1379,"ĠOutput":1380,"Ġprimary":1381,"ency":1382,"gor":1383,"itive":1384,"roup":1385,"Ġwhat":1386,"åĻ¨":1387,"ider":1388,"ential":1389,"åħ¥":1390,"æķĪ":1391,"Ġcharacters":1392,"Ĥ¨":1393,"Ġadv":1394,"list":1395,"çº":1396,"Ġcontain":1397,"Ġbeen":1398,"iron":1399,"ization":1400,"æĪĳ":1401,"åĪ¶":1402,"Ġclass":1403,"ever":1404,"ng":1405,"ç¤":1406,"Ġcount":1407,"hes":1408,"Ġmight":1409,"Ġbu":1410,"Ġ7":1411,"23":1412,"ä¿¡":1413,"Ġpredict":1414,"çĤ":1415,"ä½ĵ":1416,"è®¡ç®Ĺ":1417,"Ġcult":1418,"to":1419,"ĠCon":1420,"rol":1421,"lob":1422,"wn":1423,"orted":1424,"Ġart":1425,"éª":1426,"Ġser":1427,"Ġcommon":1428,"Ġexper":1429,"viron":1430,"Ġgrow":1431,"Ġaut":1432,"Ġname":1433,"åº¦":1434,"irc":1435,"ç³»":1436,"Ġcap":1437,"Ġsquare":1438,"Ġsoc":1439,"antum":1440,"port":1441,"lab":1442,"çĽ®":1443,"ets":1444,"Ġ==":1445,"der":1446,"ingle":1447,"Ġrevers":1448,"ings":1449,"Data":1450,"é¢ĺ":1451,"Ġnum":1452,"ximum":1453,"ergy":1454,"ake":1455,"Can":1456,"æģ":1457,"Ġtakes":1458,"å±ķ":1459,"ithm":1460,"å¢":1461,"mb":1462,"å¼ı":1463,"æº":1464,"Ġsmall":1465,"æĭ©":1466,"éĺ¿":1467,"éĢīæĭ©":1468,"ĠLe":1469,"SS":1470,"éĺ¿éĩĮ":1471,"Ġgood":1472,"Ġlife":1473,"ex":1474,"Ġdevelopment":1475,"ĠPro":1476,"åĬĽ":1477,"Ġlarge":1478,"Ġthen":1479,"Ġarea":1480,"Ġelement":1481,"orage":1482,"ĠChina":1483,"Ġmark":1484,"Ġimpro":1485,"inal":1486,"Ġhuman":1487,"åħ·":1488,"here":1489,"ç§į":1490,"ild":1491,"\"\"":1492,"ick":1493,"Ġwide":1494,"name":1495,"éĢĤ":1496,"ality":1497,"itial":1498,"Ġcent":1499,"ames":1500,"Ġpassword":1501,"Ġdesigned":1502,"10":1503,"ian":1504,"Ġpatter":1505,"alind":1506,"æºĲ":1507,"alindrom":1508,"Ġenviron":1509,"Ġknown":1510,"åħ³":1511,"Ġwork":1512,"Ġparticular":1513,"æŃ¥":1514,"pre":1515,"Ġstep":1516,"Ġbusinesses":1517,"(\"":1518,"è¶":1519,"Ġeas":1520,"Ġglob":1521,"åĿ":1522,"Ġ<":1523,"Ġact":1524,"val":1525,"çİ°":1526,"å®īåħ¨":1527,"Ġuser":1528,"ious":1529,"Ġelements":1530,"arning":1531,"iction":1532,"cial":1533,"Ġ9":1534,"ĠV":1535,"Ġunsupervised":1536,"ĠTr":1537,"éĹ´":1538,"æ¯":1539,"Ġcommun":1540,"Ġsub":1541,"ĠQwen":1542,"Ġenergy":1543,"çĤ¹":1544,"Ġbook":1545,"Ġsupervised":1546,"urn":1547,"Ġline":1548,"ius":1549,"çĶ¨æĪ·":1550,"å°Ĩ":1551,"éļ":1552,"æĥ":1553,"Ġmin":1554,"å¤Ħ":1555,"Ġmanage":1556,"å·´":1557,"Ġequation":1558,"ving":1559,"Ġ19":1560,"åĮħ":1561,"æ´":1562,"Ġsingle":1563,"Ġloc":1564,"Ġcolum":1565,"èµĦ":1566,"hen":1567,"str":1568,"ward":1569,"Ġsk":1570,"Ġunique":1571,"Ġgreat":1572,"pty":1573,"ploye":1574,"Ġmaximum":1575,"Ġsummary":1576,"Ġsystems":1577,"åĩº":1578,"ç¼":1579,"Ġread":1580,"ulation":1581,"Ġusers":1582,"ĠYou":1583,"ĠRe":1584,"ove":1585,"Ġstore":1586,"Ġpurp":1587,"hip":1588,"Ġback":1589,"gan":1590,"Ġpoints":1591,"çł":1592,"âĢľ":1593,"âĢĿ":1594,"Ġsecond":1595,"ining":1596,"amet":1597,"ution":1598,"Ġlet":1599,"Ġpe":1600,"eled":1601,"number":1602,"çī¹":1603,"ines":1604,"ater":1605,"éľĢè¦ģ":1606,"chie":1607,"ç®¡":1608,"Ġlong":1609,"Ġcontin":1610,"ç¡®ä¿Ŀ":1611,"AI":1612,"ts":1613,"Ġfi":1614,"Ġwell":1615,"åĪĽ":1616,"ety":1617,"Ġ\"\"\"":1618,"ish":1619,"read":1620,"Ġcirc":1621,"ç»Ł":1622,"ĠWe":1623,"Ł¥":1624,"Ġlength":1625,"20":1626,"Ġcru":1627,"äº¤":1628,"Ġfeatures":1629,"Ġstart":1630,"Ex":1631,"dition":1632,"è¯Ń":1633,"æ¨¡åŀĭ":1634,"Ġachie":1635,"ommend":1636,"Ġservice":1637,"Ġcalculate":1638,"Ġdef":1639,"Ġac":1640,"Ġresources":1641,"æģ¯":1642,"Ġconsider":1643,"Ġbre":1644,"Ġrun":1645,"åĮº":1646,"elow":1647,"Ġgu":1648,"åŃĲ":1649,"Ġcontent":1650,"get":1651,"Ġincludes":1652,"Ġintegers":1653,"éĩį":1654,"mbol":1655,"old":1656,"Ġcomputer":1657,"Ġdirect":1658,"Ġrecommend":1659,"alindrome":1660,"Ġconvert":1661,"Ġquantum":1662,"__":1663,"Ġtable":1664,"ather":1665,"light":1666,"Ġvers":1667,"Ġtype":1668,"è¿ĻäºĽ":1669,"Ġinteger":1670,"arch":1671,"Ġdig":1672,"Ġprovides":1673,"Ġcrucial":1674,"ern":1675,"ences":1676,"Ġag":1677,"gorithm":1678,"å¦Ĥæŀľ":1679,"å¤ĦçĲĨ":1680,"ellig":1681,"Ġpatterns":1682,"Ġparticularly":1683,"Ġenh":1684,"æıĲé«ĺ":1685,"æłĩ":1686,"aut":1687,"tal":1688,"Ġcharacter":1689,"Ġhist":1690,"ling":1691,"ident":1692,"éĹ®é¢ĺ":1693,"è°":1694,"ited":1695,"æĶ¯":1696,"for":1697,"Ġaverage":1698,"Ġopt":1699,"Ġtop":1700,"ĠHowever":1701,"Ġ\\),":1702,"Ġenvironment":1703,"Ġprote":1704,"Ġwithout":1705,"atform":1706,"ĠData":1707,"ĠUs":1708,"ray":1709,"Ġmultiple":1710,"Ġincre":1711,"Ġtool":1712,"Is":1713,"Ġstand":1714,"very":1715,"Ġatt":1716,"Ġensure":1717,"éģ":1718,"Ġwords":1719,"Ġpersonal":1720,"Ġ\\).":1721,"ber":1722,"Ġroot":1723,"Ġtechnology":1724,"Ġown":1725,"ç½®":1726,"ied":1727,"Ġchecks":1728,"Ġsal":1729,"Ġalgorithm":1730,"Ġresp":1731,"Ġins":1732,"ats":1733,"lu":1734,"Ġtem":1735,"conom":1736,"Ġintegr":1737,"gin":1738,"ä½ķ":1739,"æ±Ĥ":1740,"Ġmean":1741,"ood":1742,"ital":1743,"Ġ\\[":1744,"ĠĠĠĠĠ":1745,"fore":1746,"atic":1747,"ilities":1748,"ters":1749,"alse":1750,"Ġlight":1751,"åŁŁ":1752,"sq":1753,"åĵģ":1754,"ç®¡çĲĨ":1755,"Ġscript":1756,"ression":1757,"up":1758,"by":1759,"ç±":1760,"ule":1761,"any":1762,"Ġglobal":1763,"num":1764,"Ġeffect":1765,"ula":1766,"Ġstate":1767,"ccess":1768,"ĠLearning":1769,"of":1770,"Ġtotal":1771,"Ġanal":1772,"ars":1773,"ale":1774,"Ġprime":1775,"case":1776,"ä¾ĭ":1777,"åħ¶":1778,"èĢħ":1779,"Ġ```":1780,"Ġmeans":1781,"Ġfilter":1782,"Ġhelps":1783,"åŁº":1784,"Ġrepres":1785,"ployees":1786,"Ġquery":1787,"ting":1788,"ä¿¡æģ¯":1789,"Ġcontrol":1790,"Ġterms":1791,"Ġgra":1792,"Ġget":1793,"Ġmany":1794,"éĵ":1795,"Ġempty":1796,"çī©":1797,"ĠTo":1798,"elf":1799,"pro":1800,"å¹³":1801,"è¡¨":1802,"cing":1803,"pe":1804,"é¡¹":1805,"Ġlargest":1806,"æ¬":1807,"Ġsymbol":1808,"Ġmaintain":1809,"hens":1810,"Ġfunctions":1811,"Ġknow":1812,"Ġconcept":1813,"ĠBelow":1814,"illion":1815,"ocus":1816,"æ°":1817,"Ġdeep":1818,"ĠThese":1819,"Ġsecure":1820,"Ġnovel":1821,"Ġpol":1822,"Ġfactor":1823,"Ġpract":1824,"--":1825,"ering":1826,"Ġlat":1827,"pen":1828,"ries":1829,"ately":1830,"åİ":1831,"ĠUn":1832,"åĨħ":1833,"QL":1834,"ives":1835,"æĻº":1836,"Ġcustomer":1837,"Ġsoft":1838,"ä¼ĺ":1839,"ubl":1840,"Ġobject":1841,"ew":1842,"amples":1843,"Ġaround":1844,"Ġdifference":1845,"ble":1846,"ves":1847,"esp":1848,"Ġrequire":1849,"Ġfiel":1850,"Ġref":1851,"Ġimportant":1852,"requ":1853,"Ġhealth":1854,"åĲİ":1855,"com":1856,"Ġav":1857,"eric":1858,"ron":1859,"æ·":1860,"æĤ¨":1861,"Ġcase":1862,"random":1863,"ĠAl":1864,"ople":1865,"éĶ":1866,"iss":1867,"Ġplatform":1868,"Ġspe":1869,"Ġsocial":1870,"Ġide":1871,"Ġsame":1872,"Ġmem":1873,"Ġsever":1874,"Ġfam":1875,"ibr":1876,"ï¼ģ":1877,"Ġformula":1878,"rt":1879,"anced":1880,"plt":1881,"alled":1882,"ĠCom":1883,"Ġorder":1884,"Ġlast":1885,"Ġmed":1886,"Ġvis":1887,"Ġperformance":1888,"éĽ":1889,"çĦ":1890,"ĠAdd":1891,"Ġallows":1892,"orld":1893,"Ġdiction":1894,"riend":1895,"Ġassist":1896,"ively":1897,"åŃĺ":1898,"Ġdatas":1899,"ç³»ç»Ł":1900,"elligence":1901,"ix":1902,"ink":1903,"line":1904,"Ġed":1905,"Ġtest":1906,"utions":1907,"Ġrow":1908,"ough":1909,"plot":1910,"ç´":1911,"é¢Ĩ":1912,"Here":1913,"äº§":1914,"Ġachieve":1915,"æĻºèĥ½":1916,"EC":1917,"Ġfocus":1918,"Ġstory":1919,"\\),":1920,"Ġinf":1921,"Ġreal":1922,"Ġpurpose":1923,"Ġeconom":1924,"Ġconc":1925,"Ġi":1926,"Ġstructure":1927,"ĊĠĠĠĠĠĠĠĠĠĠĠ":1928,"åģ":1929,"Ġiter":1930,"Ġprom":1931,"Ġfew":1932,"par":1933,"Ġcost":1934,"Ġfound":1935,"Ġpa":1936,"tern":1937,"ier":1938,"æľĢ":1939,"Ġdev":1940,"Ġfin":1941,"sum":1942,"åľº":1943,"Ġver":1944,"Ġchang":1945,"Ġaddress":1946,"Ġdate":1947,"æŀĲ":1948,"æĭ¬":1949,"Ġimprove":1950,"æ¸":1951,"çĶµ":1952,"ä¸ĢäºĽ":1953,"Ġcorre":1954,"ç±»":1955,"Ġcle":1956,"ross":1957,"ĠThey":1958,"As":1959,"Ġmarket":1960,"åĮħæĭ¬":1961,"Ġ*":1962,"ĠComm":1963,"æİ¥":1964,"Ġdoes":1965,"Ġseveral":1966,"()":1967,"atural":1968,"Ġmodels":1969,"dius":1970,"Ġtypically":1971,"ĠServ":1972,"çĦ¶":1973,"ric":1974,"ade":1975,"Ġunderstanding":1976,"çİ¯":1977,"ä¹Ł":1978,"æ²":1979,"Ġorgan":1980,"Ġhandle":1981,"ning":1982,"angle":1983,"Sc":1984,"çİĩ":1985,"aging":1986,"è°ĥ":1987,"Ġlatest":1988,"Ġmon":1989,"ĠCheck":1990,"åī":1991,"æł¹":1992,"Ġfollowing":1993,"Ġ%":1994,"è®®":1995,"è¿Ľè¡Į":1996,"Ġtemper":1997,"èģ":1998,"Ġ12":1999,"Ġeng":2000,"Ġwebs":2001,"apt":2002,"åħ¬":2003,"Ġsequ":2004,"ooking":2005,"Ġrole":2006,"ming":2007,"åĪĨæŀĲ":2008,"\")":2009,"oin":2010,"æĶ¯æĮģ":2011,"Ġher":2012,"ism":2013,"Ġword":2014,"ogn":2015,"åĢ":2016,"æ¡":2017,"Ġcontext":2018,"è£":2019,"cd":2020,"æ´»":2021,"ä»»":2022,"åĽ¾":2023,"Ġinvol":2024,"Ġorig":2025,"ven":2026,"ness":2027,"Ġplot":2028,"Ġcompre":2029,"Ġgrowth":2030,"æīĢ":2031,"Ġdecis":2032,"Ġcomprehens":2033,"Ġaim":2034,"abilities":2035,"fter":2036,"ror":2037,"ER":2038,"éĥ":2039,"ivid":2040,"Ġess":2041,"Ġfree":2042,"ication":2043,"ains":2044,"Ġgoal":2045,"å¹¶":2046,"import":2047,"è¯Ĩ":2048,"åıĳå±ķ":2049,"Ġparamet":2050,"Ġwould":2051,"Ġbl":2052,"ash":2053,"Ġoffers":2054,"Ġcorrect":2055,"Ġoffer":2056,"åĨ³":2057,"ä½łçļĦ":2058,"é¢ĨåŁŁ":2059,"ï¼Ł":2060,"Ġred":2061,"ç»ı":2062,"æµĭ":2063,"Ġdivis":2064,"oad":2065,"ument":2066,"times":2067,"Ġnon":2068,"Ġlower":2069,"å¤Ł":2070,"Ġwrit":2071,"è£ħ":2072,"éĥ¨":2073,"Ġimpact":2074,"Ġbecause":2075,"Ġconf":2076,"gative":2077,"æĦı":2078,"nov":2079,"alls":2080,"åı°":2081,"Ġquest":2082,"itions":2083,"æŀĦ":2084,"icial":2085,"Ġbet":2086,"æľŁ":2087,"æĺİ":2088,"æ³¨":2089,"oice":2090,"Ġ/":2091,"Ġpopulation":2092,"If":2093,"å°ı":2094,"Ġensuring":2095,"artment":2096,"Ġneeds":2097,"alculate":2098,"Ġstorage":2099,"ç¤¾":2100,"Ġident":2101,"Ġplay":2102,"Ġdictionary":2103,"å®¹":2104,"ci":2105,"Ġdeterm":2106,"éĵ¾":2107,"hor":2108,"å¤ĩ":2109,"cdot":2110,"Ġnatural":2111,"ĠCan":2112,"Ġtraffic":2113,"Ġprotect":2114,"mat":2115,"ificial":2116,"åĽ½":2117,"Ġproviding":2118,"How":2119,"ateg":2120,"åĪ©":2121,"arth":2122,"Ġupd":2123,"Ġcolor":2124,"Ġpubl":2125,"ividual":2126,"Ġsun":2127,"Ġthose":2128,"é£":2129,"idd":2130,"irew":2131,"åķ":2132,"oring":2133,"èµĦæºĲ":2134,"These":2135,"ç¼ĸ":2136,"itle":2137,"ivity":2138,"ä½łå¥½":2139,"Ġdataset":2140,"Ġwater":2141,"Ġaspect":2142,"åįķ":2143,"hed":2144,"å®¶":2145,"Ġprocessing":2146,"Ġuses":2147,"çĿ":2148,"Ġworks":2149,"Ġ$":2150,"ified":2151,"\\).":2152,"ĠSh":2153,"ç«Ļ":2154,"Ġdel":2155,"ows":2156,"éħ":2157,"Ġcontribut":2158,"ification":2159,"æł¹æį®":2160,"Ġmust":2161,"Ġduring":2162,"éĽĨ":2163,"Ġstrings":2164,"è§Ħ":2165,"å¦Ĥä½ķ":2166,"Ġindividual":2167,"Ġbetter":2168,"ator":2169,"Ġwid":2170,"åĿĹ":2171,"èĻ":2172,"Ġdem":2173,"RO":2174,"sc":2175,"Ġloop":2176,"Ġpeople":2177,"ems":2178,"Ġchange":2179,"right":2180,"ĊĊĠĠĠ":2181,"ances":2182,"Ġsa":2183,"ç»ľ":2184,"sw":2185,"ĠOSS":2186,"äºĨè§£":2187,"Ġreverse":2188,"ilar":2189,"':":2190,"uc":2191,"vent":2192,"èī":2193,"Ġdown":2194,"ç½ĳç»ľ":2195,"ox":2196,"ä¹ĭ":2197,"ert":2198,"Ġdepend":2199,"Tr":2200,"Ġproject":2201,"åĪ«":2202,"value":2203,"Ġtradition":2204,"Ġfield":2205,"ral":2206,"æĬ¤":2207,"Ġreli":2208,"Ġinitial":2209,"Ġgroup":2210,"Ġchall":2211,"èĥ½å¤Ł":2212,"ancial":2213,"ä»¬":2214,"Ġleading":2215,"Ġexperience":2216,"ibility":2217,"ele":2218,"ection":2219,"ream":2220,"Ġsent":2221,"Ġlooking":2222,"Ġlim":2223,"ables":2224,"ource":2225,"actions":2226,"ced":2227,"Ġintelligence":2228,"éĢŁ":2229,"çķ":2230,"åıĬ":2231,"izing":2232,"Given":2233,"ll":2234,"ĠTh":2235,"Ġright":2236,"Ġsee":2237,"Ġcar":2238,"æİ§":2239,"Ġinternational":2240,"éĺ¿éĩĮäºĳ":2241,"ved":2242,"Ġ30":2243,"éĿŀ":2244,"blem":2245,"Ġsequence":2246,"Ġcolumn":2247,"chan":2248,"Ġconst":2249,"ä»İ":2250,"å¸Ĥ":2251,"Alibaba":2252,"è·":2253,"Ġrese":2254,"åºĵ":2255,"orks":2256,"æľĽ":2257,"St":2258,"reen":2259,"¨Ģ":2260,"è¨Ģ":2261,"ional":2262,"Ġrele":2263,"æķ´":2264,"Ġsolutions":2265,"'re":2266,"ç»ĵ":2267,"nce":2268,"Ġfrequ":2269,"izes":2270,"Ġposs":2271,"Ġsoftware":2272,"Ch":2273,"Ġemployees":2274,"Ġ2023":2275,"éªĮ":2276,"ĠSQL":2277,"æĹ¶éĹ´":2278,"Ġindust":2279,"Ġwithin":2280,"Ġbegin":2281,"å®ĥ":2282,"Ġelect":2283,"Ġlabels":2284,"'t":2285,"like":2286,"Ġsorted":2287,"iew":2288,"Ġpositive":2289,"Ġcalled":2290,"èĤ":2291,"Ġnames":2292,"æµģ":2293,"ĠCommon":2294,"tep":2295,"ä»¥ä¸ĭ":2296,"Ġpot":2297,"other":2298,"ationship":2299,"Ġmodule":2300,"ç®Ģ":2301,"æİ¨":2302,"Ġacross":2303,"Ġmillion":2304,"Ġdistribut":2305,"éĩįè¦ģ":2306,"imate":2307,"Ġansw":2308,"å°ĳ":2309,"Ġapproach":2310,"Go":2311,"SV":2312,"file":2313,"uous":2314,"input":2315,"Ġlog":2316,"ç»Ń":2317,"min":2318,"sh":2319,"Ġodd":2320,"ĠAm":2321,"Ġsimilar":2322,"Ġminim":2323,",\"":2324,"é¦":2325,"raph":2326,"Ġweb":2327,"Ġhig":2328,"ĠPr":2329,"Ġplan":2330,"Ġuseful":2331,"çĽ¸":2332,"å¿ĥ":2333,"Ġday":2334,"orts":2335,"Ġculture":2336,"Ġend":2337,"Ġsignificance":2338,"ince":2339,"Ġarray":2340,"èĬ":2341,"ren":2342,"path":2343,"Ġcrit":2344,"Ġiss":2345,"ivers":2346,"Ġbeing":2347,"Ġlabeled":2348,"urs":2349,"å¸Į":2350,"acc":2351,"è¯ķ":2352,"Ġtraining":2353,"è®Ń":2354,"å®īè£ħ":2355,"Ġdatab":2356,"Ġdue":2357,"Ġnature":2358,"ĠWh":2359,"åĩĨ":2360,"Ġstandard":2361,"Ġpalindrome":2362,"Ġben":2363,"ilter":2364,"Ġenc":2365,"ĠThere":2366,"åĽ¢":2367,"Ġmet":2368,"æĢģ":2369,"ides":2370,"Ġlibr":2371,"ä»ĸ":2372,"ä¼ģ":2373,"æĸ¹æ³ķ":2374,"('":2375,"å¢ĥ":2376,"kes":2377,"und":2378,"èĢĮ":2379,"Ġcapabilities":2380,"ĠService":2381,"Ġvery":2382,"ä»£":2383,"Ġcompany":2384,"Ġyears":2385,"'m":2386,")**:":2387,"iency":2388,"adr":2389,"ä¼ģä¸ļ":2390,"åı¯èĥ½":2391,"Ġstrong":2392,"ner":2393,"Ġbest":2394,"iving":2395,"è¯Ńè¨Ģ":2396,"Ġinterest":2397,"ä¸»":2398,"æĦŁ":2399,"AT":2400,"é¢Ħ":2401,"éļı":2402,"ecial":2403,"å»ºè®®":2404,"Ġautom":2405,"Ġshort":2406,"Ġpotential":2407,"')":2408,"ead":2409,"Ġamount":2410,"ä¼ĺåĮĸ":2411,"Ġbeaut":2412,"Ġ>":2413,"Ġflo":2414,"Ġrecogn":2415,"Ġless":2416,"000":2417,"å¼Ģåıĳ":2418,"ger":2419,"Ġsur":2420,"Ġrelationship":2421,"éľĢæ±Ĥ":2422,"result":2423,"è¾ĵ":2424,"Ġcircle":2425,"Ġrepresent":2426,"åīį":2427,"ĠCSV":2428,"ĠEl":2429,"éª¤":2430,"æŃ¥éª¤":2431,"Ġoriginal":2432,"ç»ĥ":2433,"oid":2434,"ute":2435,"Ġradius":2436,"ted":2437,"Ġvol":2438,"è¿ĺ":2439,"iled":2440,"Ġofficial":2441,"åıĸ":2442,"sqrt":2443,"max":2444,"Ġproblem":2445,"Ġareas":2446,"Ġphys":2447,"Ġexplain":2448,"ç¤º":2449,"Ġtake":2450,"aries":2451,"Ġhard":2452,"ody":2453,"å½ĵ":2454,"Ġavail":2455,"Com":2456,"rand":2457,"çº¿":2458,"aces":2459,"Ġinternet":2460,"å¸ĮæľĽ":2461,"éķ":2462,"ä¸įåĲĮ":2463,"ç½ĳç«Ļ":2464,"Th":2465,"æĺ¯ä¸Ģä¸ª":2466,"åĩı":2467,"Ġdisc":2468,"Ġinflu":2469,"Ġer":2470,"Ġcultural":2471,"Ġeconomic":2472,"çİ¯å¢ĥ":2473,"Ġdi":2474,"Ġbreak":2475,"æ¶":2476,"Ġel":2477,"Ġinnov":2478,"ä½Ĩ":2479,"Ġdesc":2480,"ecurity":2481,"Ġfinancial":2482,"For":2483,"SE":2484,"Ġcomb":2485,"ĠUse":2486,"Ġsteps":2487,"Ġhistory":2488,"ç¬":2489,"ĠStep":2490,"æīĭ":2491,"adratic":2492,"æŁ¥":2493,"çľ":2494,"Ġevery":2495,"ello":2496,"Ġpredictions":2497,"arm":2498,"Ġder":2499,"Ġensures":2500,"å¢ŀ":2501,"ç©":2502,"Ġsize":2503,"Con":2504,"å·´å·´":2505,"æĸĩä»¶":2506,"éĺ¿éĩĮå·´å·´":2507,"Ġmanagement":2508,"Ġgreater":2509,"å®¢":2510,"ired":2511,"Ġlocal":2512,"ta":2513,"Ġrefer":2514,"åĬŁ":2515,"Ġtrue":2516,"Ġversion":2517,"ares":2518,"sv":2519,"chain":2520,"Ġequal":2521,"çĸ":2522,"Ġ**`":2523,"åĢ¼":2524,"Ġtechnologies":2525,"åĮºåĿĹ":2526,"æĺĵ":2527,"ails":2528,"Ġvariety":2529,"å¾Ĺ":2530,"Ġartificial":2531,"ai":2532,"ä¸ŃçļĦ":2533,"arily":2534,"åĪĹ":2535,"rix":2536,"Ġscal":2537,"Ġreduce":2538,"Ġsalary":2539,"Ġfactorial":2540,"eturn":2541,"oci":2542,"Ġteam":2543,"ailed":2544,"nect":2545,"sorted":2546,"éĥ½":2547,"Ġprof":2548,"è¿ĩç¨ĭ":2549,"ĠAs":2550,"ĠTrue":2551,"Ġrespons":2552,"Ġbuild":2553,"Ġtraditional":2554,"Ġcould":2555,"Ġwrite":2556,"Ġvast":2557,"Ġplace":2558,"Ġfeel":2559,"åĲĳ":2560,"æľºåĻ¨":2561,"Im":2562,"åŃĹ":2563,"ists":2564,"Ġvary":2565,"Ġshare":2566,"Ġscience":2567,"Ġallowing":2568,"Ġdigital":2569,"Ġwebsite":2570,"Ġsust":2571,"åĲį":2572,"ä¼ł":2573,"Ġmeaning":2574,"structure":2575,"Ġquadratic":2576,"çŃĸ":2577,"Ġchalleng":2578,"day":2579,"ĠFalse":2580,"Ġdecisions":2581,"Ġderiv":2582,"Ġopen":2583,"Ġbas":2584,"è¯·":2585,"ximately":2586,"Ġaspects":2587,"çĿĢ":2588,".,":2589,"app":2590,"åıĺ":2591,"Ġpowerful":2592,"Ġpublic":2593,"ĠAn":2594,"pli":2595,"ually":2596,"å¹³åı°":2597,"é¡¹çĽ®":2598,"onacc":2599,"ume":2600,"ibonacc":2601,"åķĨ":2602,"Ġsustain":2603,"ibonacci":2604,"åıĤ":2605,"Ġresults":2606,"play":2607,"Ġ15":2608,"å¿«":2609,"Ġtools":2610,"ĠDe":2611,"Ġefficiently":2612,"éħį":2613,"Ġcases":2614,"stit":2615,"Ġcalculates":2616,"éĿŀå¸¸":2617,"You":2618,"å¤į":2619,"æł¼":2620,"Ġfamily":2621,"Ġdoc":2622,"Ġrecord":2623,"Ġoptim":2624,"å®Į":2625,"Ġ\\(\\":2626,"ditions":2627,"Ġbeh":2628,"åĪĽå»º":2629,"Ġpossible":2630,"æĸŃ":2631,"Ġdisco":2632,"åĨħå®¹":2633,"ban":2634,"Â°":2635,"red":2636,"Ġimple":2637,"Ġcontains":2638,")^":2639,"ners":2640,"pare":2641,"ĠWorld":2642,"å¼º":2643,"Ġpolic":2644,"Python":2645,"Ġprogramming":2646,"æĻ¯":2647,"plotlib":2648,"Ġupdates":2649,"Ġbenef":2650,"Ġassoci":2651,"Ġhighly":2652,"Ġadvanced":2653,"predict":2654,"Ġenhance":2655,"Ġresearch":2656,"å·¥ä½ľ":2657,"Ġcommunication":2658,"Ġanaly":2659,"Ġtre":2660,"\".":2661,"']":2662,"Ġmo":2663,"ä»ħ":2664,"rame":2665,"å·¥åħ·":2666,"`:":2667,"br":2668,"Ġesp":2669,"Ġsuccess":2670,"Ġoperations":2671,"Ġcontinuous":2672,"éķ¿":2673,"less":2674,"ights":2675,"Ġimage":2676,"Ġmodern":2677,"de":2678,"ç§ĳ":2679,"Ġblockchain":2680,"ysis":2681,"aking":2682,"Ġocc":2683,"nding":2684,"Ġpath":2685,"æ¯ı":2686,"åĩıå°ĳ":2687,"the":2688,"ĠBy":2689,"Ġtypes":2690,"Ġprimarily":2691,"{-":2692,"Ġsug":2693,"çĶ¨äºİ":2694,"ĠSc":2695,"aves":2696,"Ġoutputs":2697,"æķĪçİĩ":2698,"çŁ¥":2699,"Ġtimes":2700,"Ġupdate":2701,"Ġpopular":2702,"Ġcustomers":2703,"Ġlove":2704,"So":2705,"Ġz":2706,"ense":2707,"Ġexplore":2708,"Ġtemperature":2709,"nter":2710,"ilt":2711,"izations":2712,"æĥ³":2713,"Re":2714,"Ġsky":2715,"ption":2716,"Ġarg":2717,"Ġdevices":2718,"Ġlowercase":2719,"è®Ńç»ĥ":2720,"::":2721,"ins":2722,"Ġpres":2723,"Ġext":2724,"15":2725,"Ġbro":2726,"è§Ĩ":2727,"æĶ¹":2728,"Ġair":2729,"Hello":2730,"action":2731,"Ġmax":2732,"è¯ģ":2733,"æĸ¹å¼ı":2734,"amed":2735,"Ġselect":2736,"çłĶ":2737,"Ġdr":2738,"lying":2739,"å½ķ":2740,"æ¯Ķ":2741,"Ġreflect":2742,"æ·±":2743,"ĠAddition":2744,"Ġquestions":2745,"Ġdetermine":2746,"ination":2747,"Ġclo":2748,"fect":2749,"ember":2750,"äº§åĵģ":2751,"Ġwidely":2752,"ecially":2753,"ystem":2754,"lex":2755,"ental":2756,"Ġespecially":2757,"iod":2758,"ories":2759,"ĠEng":2760,"ĠEarth":2761,"ĠHe":2762,"ĠNew":2763,"Ġgoals":2764,"LEC":2765,"Ġnegative":2766,"ĠGo":2767,"Ġissues":2768,"LECT":2769,"Ġshow":2770,"Ġprints":2771,"Ġtri":2772,"Ġheart":2773,"Ġsolve":2774,"ifying":2775,"cos":2776,"Ġ:":2777,"å¹´":2778,"Ġmakes":2779,"Ġaccount":2780,"ancing":2781,"æĥħ":2782,"pliance":2783,"ug":2784,"ĠDef":2785,"Ġdetection":2786,"èģĶ":2787,"pi":2788,"Ġlay":2789,"Ġprice":2790,"Ġaccessible":2791,"Ġsmallest":2792,"Ġcity":2793,"Ġmess":2794,"Ġla":2795,"è¿Ĳ":2796,"å¼ķ":2797,"Ġprodu":2798,"Ġpriv":2799,"verse":2800,"Ġeasy":2801,"arri":2802,"ules":2803,"ĠMan":2804,"Ġimages":2805,"ours":2806,"æĹ¥":2807,"acy":2808,"ä¸įä»ħ":2809,"labeled":2810,"Ġchanges":2811,"Frame":2812,"åĤ¨":2813,"ĠZ":2814,"Ġbel":2815,"Ġ16":2816,"ants":2817,"Ġunlabeled":2818,"Ġmethods":2819,"ways":2820,"place":2821,"ç»Ħ":2822,"çłģ":2823,"Ġnamed":2824,"ormal":2825,"Ġfiles":2826,"Ġessential":2827,"Over":2828,"Ġsom":2829,"Ġsort":2830,"ouse":2831,"ä½į":2832,"å¹¿":2833,"è®¾ç½®":2834,"Ġmaintaining":2835,"ROM":2836,"Ġfore":2837,"çĽĳ":2838,"Ġcolumns":2839,"åŃĺåĤ¨":2840,"uch":2841,"iter":2842,"etic":2843,"Ġrespect":2844,"Ġpoem":2845,"Ġformat":2846,"Ġreversed":2847,"Cre":2848,"lus":2849,"rase":2850,"oss":2851,"ĠTrans":2852,"Examples":2853,"predicting":2854,"ret":2855,"not":2856,"æĮĩ":2857,"Ġdistribution":2858,"ah":2859,"med":2860,"arly":2861,"åĮ»":2862,"frastructure":2863,"ava":2864,"ä¿ĿæĮģ":2865,"Ġdetailed":2866,"csv":2867,"ps":2868,"Ġfriend":2869,"Ġonline":2870,"è§£åĨ³":2871,"Ġlanguages":2872,"åħ·ä½ĵ":2873,"æ°´":2874,"io":2875,"uro":2876,"ently":2877,"Ġstud":2878,"Ġchain":2879,"ogle":2880,"å¯¼":2881,"ĠStorage":2882,"Ġfl":2883,"ote":2884,"Ġchart":2885,"Ġmechan":2886,"è´¨":2887,"Le":2888,"ipp":2889,"Ġmade":2890,"une":2891,"éĩıåŃĲ":2892,"Ġbeauty":2893,"ites":2894,"å®ŀçİ°":2895,"è®¾è®¡":2896,"Ġclassification":2897,"Ġminimum":2898,"Ġmay":2899,"åºı":2900,"True":2901,"Ġsentence":2902,"11":2903,"char":2904,"Ġfirew":2905,"è´¹":2906,"Ġcountries":2907,"rief":2908,"py":2909,"hest":2910,"ane":2911,"Ġjust":2912,"ä¸ªäºº":2913,"new":2914,"oint":2915,"oration":2916,"ĠGener":2917,"ustomer":2918,"Ġrows":2919,"ty":2920,"Ġnight":2921,"abeth":2922,"Ġconditions":2923,"äºĭ":2924,"izabeth":2925,"Ġcomputers":2926,"éĺŁ":2927,"Ġeduc":2928,"Ġproper":2929,"æĢ§åĴĮ":2930,"Ġsupports":2931,":\",":2932,"ior":2933,"åĽł":2934,"IN":2935,"ĠCont":2936,"ĠUsing":2937,"SELECT":2938,"Ġsuggest":2939,"face":2940,"ĠSp":2941,"Ġexc":2942,"oph":2943,"Ġapplication":2944,"éĢĤåĲĪ":2945,"Ġcy":2946,"uss":2947,"Ġkeep":2948,"cient":2949,"ĠPar":2950,"Ġability":2951,"èĩªåĬ¨":2952,"Ġreducing":2953,"Ġchallenges":2954,"Ġexpect":2955,"åħ´":2956,"andas":2957,"Ġweather":2958,"Ġcommand":2959,"çĽ®æłĩ":2960,"æ»":2961,"Ġstruct":2962,"Ġ25":2963,"Ġquick":2964,"oose":2965,"éĻħ":2966,"åĵį":2967,"åĪ©çĶ¨":2968,"èį":2969,"We":2970,"ä¸ĵ":2971,"Ġdepending":2972,"99":2973,"ration":2974,"ĠIm":2975,"Ġtoget":2976,"olution":2977,"ä½łæľī":2978,"Ġefficiency":2979,"axis":2980,"å¸Ĥåľº":2981,"ĠElizabeth":2982,"Ġtogether":2983,"Ġrest":2984,"ĠPre":2985,"Ġmeet":2986,"æŃ£":2987,"é£İ":2988,"Ġfactors":2989,"ç´¢":2990,"idden":2991,"æĹł":2992,"Ġavailable":2993,"ik":2994,"uck":2995,"Ġinfrastructure":2996,"lish":2997,"Ġfac":2998,"Ġmeas":2999,"ooks":3000,"Ġspecial":3001,"åĩ»":3002,"Ġregul":3003,"Ġidea":3004,"Ġderivative":3005,"Ġest":3006,"ecess":3007,"ĠGroup":3008,"Ġscient":3009,"Ġtrained":3010,"åĲĮæĹ¶":3011,"ave":3012,"ok":3013,"å§":3014,"Ġcat":3015,"Ġland":3016,"åĮºåĿĹéĵ¾":3017,"ging":3018,"}\")":3019,"çģ":3020,"Ġseries":3021,"Ġsaf":3022,"az":3023,"pload":3024,"Ġlevel":3025,"Ġagain":3026,"ç¼ĸç¨ĭ":3027,"Pro":3028,"sp":3029,"Ġafter":3030,"Ġdom":3031,"rain":3032,"Ġproducts":3033,"Ġeasily":3034,"PI":3035,"arr":3036,"Ġdays":3037,"ategory":3038,"down":3039,"iet":3040,"sort":3041,"Ġ&":3042,"è®º":3043,"Ġ\\):":3044,"Ġsignificantly":3045,"Ġparameters":3046,"By":3047,"éĩĳ":3048,"Ġbuilt":3049,"atsby":3050,"df":3051,"sal":3052,"Ġsn":3053,"åıį":3054,"æķĻ":3055,"ç«ĭ":3056,"Ġwriting":3057,"Ġimplement":3058,"Ġstructures":3059,"12":3060,"join":3061,"yn":3062,"Ġthree":3063,"uture":3064,"ĠPl":3065,"imal":3066,"ĠCalculate":3067,"ä¿ĿæĬ¤":3068,"Ġlibrary":3069,"æĵ":3070,"çļĦæķ°æį®":3071,"ology":3072,"å½±":3073,"Ġmedia":3074,"ony":3075,"å·±":3076,"èĩªå·±":3077,"åĽ¢éĺŁ":3078,"air":3079,"hel":3080,"ĠList":3081,"å¸®åĬ©ä½ł":3082,"PU":3083,"cher":3084,"Ġwere":3085,"ilit":3086,"åħ±":3087,"ĠDar":3088,"èĥ½åĬĽ":3089,"Ġenter":3090,"Ġbroad":3091,"cle":3092,"çĥ":3093,"Ġspecified":3094,"Ġfund":3095,"Ġconvers":3096,"we":3097,"Ġbrief":3098,"Ġrob":3099,"Ġaccur":3100,"Goal":3101,"joy":3102,"tt":3103,"è¢":3104,"ĠGatsby":3105,"Ġprevent":3106,"Ġexpression":3107,"Ġletters":3108,"elebr":3109,"ĠDarcy":3110,"orical":3111,"ĠDataFrame":3112,"åŁºæľ¬":3113,"æľīæķĪ":3114,"æĶ¶":3115,"Ġthemes":3116,"ä»¥ä¸ĭæĺ¯":3117,"Ġage":3118,"æĸĻ":3119,"Ġroots":3120,"ĠUnited":3121,"Pr":3122,"asing":3123,"cending":3124,"Ġtry":3125,"Ġevents":3126,"Ġparts":3127,"Ġnetworks":3128,"æ¬¢":3129,"let":3130,"Ġchoice":3131,"achine":3132,"Ġsolution":3133,"Ġserver":3134,"product":3135,"è°ĥæķ´":3136,"èĬĤ":3137,"Ġassociated":3138,"Overall":3139,"just":3140,"Ġleg":3141,"Ġsuit":3142,"æĢ§èĥ½":3143,"Ġprovided":3144,"æĶ¾":3145,"ey":3146,"Ġ//":3147,"\":":3148,"Ġfur":3149,"æĮī":3150,"Ġcompon":3151,"Ġrequirements":3152,"Ġcomprehension":3153,"istic":3154,"æĬĢæľ¯çļĦ":3155,"Ġremember":3156,"Ġspeak":3157,"ank":3158,"aly":3159,"Ġlies":3160,"Ġconnect":3161,"ä»·":3162,"åħį":3163,"Ġconsidered":3164,"Ġwhether":3165,"Ġanalysis":3166,"Ġspace":3167,"æİ§åĪ¶":3168,"ĠEach":3169,"Ġinstall":3170,"è½¯":3171,"way":3172,"agement":3173,"ape":3174,"Ġperiod":3175,"oot":3176,"yle":3177,"æ£":3178,"Ġtu":3179,"æľª":3180,"åıĹ":3181,"ordin":3182,"Ġsil":3183,"åħĪ":3184,"Ġappear":3185,"ĠQu":3186,"çĶŁæĪĲ":3187,"è¶£":3188,"time":3189,"ä¹ī":3190,"Ġcreating":3191,"ç¾":3192,"éĴ":3193,"åĨĻ":3194,"Ġinvest":3195,"ATE":3196,"çĸĹ":3197,"Ġdon":3198,"è¿°":3199,"æĮģç»Ń":3200,"Ġbody":3201,"ĠAss":3202,"èĢĥ":3203,"Ġblue":3204,"dep":3205,"ç¥":3206,"èĮ":3207,"Ġfig":3208,"Ġsources":3209,"Ġpay":3210,"Ġbal":3211,"æĿĥ":3212,"Ġindic":3213,"HER":3214,"Ġsens":3215,"è®°":3216,"Ġapproximately":3217,"Ġactiv":3218,"Ġclear":3219,"Ġinvolves":3220,"è¢«":3221,"HERE":3222,"Use":3223,"mos":3224,"inter":3225,"Ġfuture":3226,"æĽ´åĬł":3227,"Ġlabel":3228,"Ġdescrib":3229,"ecessary":3230,"å§ĭ":3231,"Ġfurther":3232,"åĥ":3233,"ç²":3234,"Ġbefore":3235,"é©":3236,"Ġlook":3237,"=\"":3238,"istics":3239,"Ġrate":3240,"åĥı":3241,"go":3242,"Ġconne":3243,"tex":3244,"æł·":3245,"Ġparticles":3246,"Ġdepartment":3247,"Ġaud":3248,"Ġmuch":3249,"Ġrenew":3250,"Ġ13":3251,"Ġ18":3252,"log":3253,"prime":3254,"æīĵ":3255,"Ġinstance":3256,"sql":3257,"ana":3258,"umn":3259,"Ġrequest":3260,"ĠConvert":3261,"Ġdatabase":3262,"ĠAdditionally":3263,"ĠIP":3264,"Ġcondition":3265,"å¯Ĩ":3266,"æĸ°çļĦ":3267,"wards":3268,"Ġorganizations":3269,"nds":3270,"amp":3271,"äºĴ":3272,"Ġalways":3273,"Ġancient":3274,"ĠRed":3275,"Ġprefer":3276,"Ġothers":3277,"åĽŀ":3278,"çĽ´":3279,"Ġclust":3280,"å¤ļä¸ª":3281,"bash":3282,"ĠInd":3283,"ĠCre":3284,"åįĩ":3285,"Ġpractical":3286,"ission":3287,"Ġcritical":3288,"jud":3289,"Ġbr":3290,"Ġseas":3291,"Ġevent":3292,"Ġreliable":3293,"ç®Ģåįķ":3294,"length":3295,"ero":3296,"ury":3297,"Ġ11":3298,"ĠNone":3299,"å¥½çļĦ":3300,"Ġimportance":3301,"Ġhighest":3302,"ser":3303,"å¤ĸ":3304,"ills":3305,"Ġcenters":3306,"Ġalong":3307,"ç»Ļ":3308,"å¯¹äºİ":3309,"Ġtask":3310,"box":3311,"Ġmanag":3312,"éĢļå¸¸":3313,"Ġdirectly":3314,"å¿«éĢŁ":3315,"Each":3316,"view":3317,"Ġthough":3318,"Ġnumer":3319,"Yes":3320,"ĠĊĠĠĠ":3321,"Ġdim":3322,"vern":3323,"åħĥ":3324,"Ġgenerating":3325,"Ġgenerally":3326,"Ġclean":3327,"æľºåĻ¨åŃ¦ä¹ł":3328,"ĠEn":3329,"è®¿":3330,"ä¾ĭå¦Ĥ":3331,"Ġvertex":3332,"Ġour":3333,"Ġhidden":3334,"Ġscale":3335,"ĠAmeric":3336,"isp":3337,"Ġmov":3338,"Ġstra":3339,"Ġsearch":3340,"ĠName":3341,"Ġprocesses":3342,"Ġ202":3343,"çĤ¹åĩ»":3344,"horized":3345,"even":3346,"upport":3347,"èŀ":3348,"rodu":3349,"ä»½":3350,"Ġtransactions":3351,"è½¬":3352,"Ġeffectively":3353,"mosp":3354,"jor":3355,"urns":3356,"ĠEuro":3357,"Ġbecome":3358,"Ġdivisible":3359,"Al":3360,"ock":3361,"pping":3362,"Ġrules":3363,"Ġhapp":3364,"Ġupper":3365,"Ġunt":3366,"Ġcreated":3367,"Ġaims":3368,"Ġindividuals":3369,"è½¯ä»¶":3370,"ledge":3371,"'(":3372,"],":3373,"Ġfood":3374,"Ġinteract":3375,"Ġaddition":3376,"Ġaccurate":3377,"Ġupload":3378,"race":3379,"Ġris":3380,"Ġlimit":3381,"19":3382,"OSS":3383,"[::":3384,"èĦ":3385,"Ġtitle":3386,"icious":3387,"çļĦåºĶçĶ¨":3388,"ull":3389,"Ġseen":3390,"çĲĨè§£":3391,"ä¸ļåĬ¡":3392,"åĳ½":3393,"riendly":3394,"[::-":3395,"ĠCl":3396,"ĠAd":3397,"Ġhelping":3398,"Ġtrust":3399,"æĬķ":3400,"ä¸ŃåĽ½":3401,"åĳĺ":3402,"Ġrepresents":3403,"èŀį":3404,"entral":3405,"Ġexec":3406,"oses":3407,"ĠNumb":3408,"aches":3409,"Ġdistance":3410,"Ġcircu":3411,"Ġrobust":3412,"Ġcategory":3413,"rop":3414,"Ġstat":3415,"otal":3416,"Ġatmosp":3417,"ä»»åĬ¡":3418,"inition":3419,"Ġbit":3420,"abol":3421,"irt":3422,"Ġexact":3423,"Ġcontaining":3424,"label":3425,"Ġfundam":3426,"sper":3427,"Ġenvironmental":3428,"where":3429,"ster":3430,"ird":3431,"ä¸Ģä¸ĭ":3432,"Ġemb":3433,"äººå·¥":3434,"æ¡Ī":3435,"Ġcomprehensive":3436,"èī²":3437,"Ġhardware":3438,"Ġdiscover":3439,"FROM":3440,"èĲ":3441,"ene":3442,"Ġnecessary":3443,"Ġlists":3444,"Ġemail":3445,"Ġgeneral":3446,"phan":3447,"Ġtransl":3448,"å¾Ī":3449,"ext":3450,"umeric":3451,"Ġfinds":3452,"Ġarch":3453,"Ġrecent":3454,"æĸ¹éĿ¢":3455,"Ġmonth":3456,"åĬŁèĥ½":3457,"Ġsides":3458,"ĠRes":3459,"ips":3460,"æķ°æį®åºĵ":3461,"Ġvariable":3462,"ension":3463,"Ġincrease":3464,"Ġbenefits":3465,"Ġmessage":3466,"wise":3467,"zh":3468,"inary":3469,"Ġdream":3470,"Ġearly":3471,"Ġ\\((":3472,"Ġspam":3473,"Ġperfect":3474,"Ġinputs":3475,"Ġsustainable":3476,"entle":3477,"Ġcanc":3478,"å¤©":3479,"æĸ½":3480,"Ġsepar":3481,"ĠVal":3482,"'.":3483,"thical":3484,"ĠFibonacci":3485,"ç»´":3486,"Ġunits":3487,"stitute":3488,"Ġstraight":3489,"['":3490,"ek":3491,"äº«":3492,"Ġmajor":3493,"ĠWhen":3494,"åĩ½":3495,"words":3496,"Ġmonit":3497,"è®¿éĹ®":3498,"phanumeric":3499,"NT":3500,"filter":3501,"æĲ":3502,"Ġanother":3503,"è¯Ħ":3504,"sole":3505,"Ġamong":3506,"Ġguid":3507,"Ġinsights":3508,"åĩ½æķ°":3509,"Return":3510,"palindrome":3511,"fficient":3512,"example":3513,"ĠPrint":3514,"Ġerror":3515,"å®¢æĪ·":3516,"WHERE":3517,"ders":3518,"hai":3519,"Ġvide":3520,"Ġremain":3521,"Ġbasic":3522,"based":3523,"Ġcelebr":3524,"Ġgreen":3525,"è¿İ":3526,"ĠRet":3527,"æķ°æį®çļĦ":3528,"Ġtransform":3529,"Ġfollows":3530,"Ġexperi":3531,"Ġparameter":3532,"Ġsat":3533,"åı£":3534,"Ġvalid":3535,"Ġcosts":3536,"å®ĮæĪĲ":3537,"Check":3538,"Ġside":3539,"Ġgentle":3540,"æ¬¢è¿İ":3541,"Ġsuitable":3542,"Ġtell":3543,"Ġsource":3544,"anies":3545,"Ġbreakdown":3546,"éħįç½®":3547,"iety":3548,"ĠIntern":3549,"åį³":3550,"ä¸»è¦ģ":3551,"Ġactivities":3552,"lar":3553,"onstr":3554,"ograph":3555,"Ġtravel":3556,"ç§¯":3557,"ĠApp":3558,"anghai":3559,"Ġhighlight":3560,".\")":3561,"Ġdirectory":3562,"Ġdigits":3563,"salary":3564,"æĵį":3565,"me":3566,"ones":3567,"plit":3568,"æĺ¯ä¸Ģ":3569,"æī¾":3570,"Ġplatforms":3571,"math":3572,"ises":3573,"left":3574,"Ġstill":3575,"æ³Ľ":3576,"ç¤¾ä¼ļ":3577,"Ġphysical":3578,"Ġagainst":3579,"æĵįä½ľ":3580,"pute":3581,"Ġsets":3582,"Ġartic":3583,"äººå·¥æĻºèĥ½":3584,");":3585,"Ġask":3586,"ĠMat":3587,"Ġcontinues":3588,"Ġpractices":3589,"Ġpair":3590,"ç©¶":3591,"Ġbehav":3592,"rror":3593,"åĪĻ":3594,"Ġmag":3595,"Ġservers":3596,"Ġdemonstr":3597,"AM":3598,"]`":3599,"uation":3600,"year":3601,"Ġdu":3602,"plies":3603,"Ġexamples":3604,"ush":3605,"There":3606,"Ġclimate":3607,"Ġversat":3608,"forward":3609,"Ġinnovation":3610,")\\)":3611,"ux":3612,"uments":3613,"ategor":3614,"Ġadjust":3615,"Ġdisplay":3616,"è´¦":3617,"å®ļæľŁ":3618,"äº¤æĺĵ":3619,"Ġinterested":3620,"Ġelse":3621,"Ġexplores":3622,"çłĶç©¶":3623,"Ġrenewable":3624,"boxed":3625,"ĠEgy":3626,"Ġitself":3627,"ï¼ī**ï¼ļ":3628,"Ġfilm":3629,"å¤ļç§į":3630,"Ġpolicies":3631,"ĠEgypt":3632,"Ġcertain":3633,"sec":3634,"ç»Ĩ":3635,"æĭŁ":3636,"Ġregions":3637,"éĻ©":3638,"åģ¥":3639,"Ġaddresses":3640,"Script":3641,"Ġfrequency":3642,"..":3643,"ots":3644,"indows":3645,"resp":3646,"ĠGreat":3647,"Ġcomplete":3648,"Ġjob":3649,"Ġ<=":3650,"16":3651,"èİ":3652,"erial":3653,"Ġcell":3654,"Ġ200":3655,"Sub":3656,"nown":3657,"Ġshe":3658,"Ġhol":3659,"Ġhad":3660,"Ġ(`":3661,"ä¹ĭéĹ´":3662,"bon":3663,"icro":3664,"omes":3665,"ĠAnd":3666,"apple":3667,"ĠInst":3668,"lower":3669,"Ġdiscuss":3670,"names":3671,"ĠFunction":3672,"Ġadvance":3673,"Ġenhancing":3674,"å½±åĵį":3675,"Ġstraightforward":3676,"Security":3677,"ĠAfter":3678,"ä½łåı¯ä»¥":3679,"Ġlarger":3680,"ĠGoogle":3681,"lection":3682,"Ġmor":3683,"ĠOver":3684,"è¯ĨåĪ«":3685,"Ġbroader":3686,"ao":3687,"data":3688,"squ":3689,"æŁ":3690,"Ġcall":3691,"Ġeff":3692,"Ġgovern":3693,"Ġunderlying":3694,"Ġspeakers":3695,"Ġax":3696,"Ġcr":3697,"istance":3698,"ä½İ":3699,"åĲĦ":3700,"è§Ĥ":3701,"Ġfundamental":3702,"ches":3703,"ze":3704,"Ġletter":3705,"Ġlonger":3706,"æµĭè¯ķ":3707,"çľĭ":3708,"ncy":3709,"atically":3710,"Ġbring":3711,"ifies":3712,"Ġnext":3713,"ĠBe":3714,"çĲĥ":3715,"ç®Ĺæ³ķ":3716,"ĠWhile":3717,"Ġdocument":3718,"care":3719,"enn":3720,"Ġlink":3721,"Ġstre":3722,"æĺ¾":3723,"Ġcollab":3724,"Ġdetails":3725,"è¾¾":3726,"äºĳè®¡ç®Ĺ":3727,"çĻ":3728,"etime":3729,"Ġann":3730,"Ġentangle":3731,"25":3732,"='":3733,"Ġflex":3734,"Ġmass":3735,"Ġwhy":3736,"Ġsquares":3737,"å¼Ģå§ĭ":3738,"Ġcorrectly":3739,"back":3740,"lease":3741,"arty":3742,"åº·":3743,"ä¸įæĸŃ":3744,"Ġdevelopers":3745,"åĳ³":3746,"Ġiterates":3747,"è¾ĵåħ¥":3748,"æ¶Ī":3749,"æ£Ģ":3750,"Qwen":3751,"hem":3752,"change":3753,"ĠOnce":3754,"ensus":3755,"æľįåĬ¡åĻ¨":3756,"Ġhistorical":3757,"ĠManagement":3758,"respond":3759,"èİ·":3760,"ished":3761,"arns":3762,"Ġrece":3763,"Ġgive":3764,"è¯»":3765,"ething":3766,"éĺ²":3767,"ready":3768,"authorized":3769,"Ġsales":3770,"Ġindustries":3771,"friendly":3772,"gre":3773,"ky":3774,"pos":3775,"çĬ":3776,"ĠBY":3777,"Ġgroups":3778,"è´¨éĩı":3779,"dig":3780,"Ł³":3781,"Ġwind":3782,"omet":3783,"Ġexist":3784,"ĠMachine":3785,"Who":3786,"Ġdivers":3787,"Ġcorrespond":3788,"Ġgraph":3789,"Ġanswers":3790,"çŁ¥è¯Ĩ":3791,"Ġexpected":3792,"ĠReturns":3793,"}}{":3794,"Ġhome":3795,"Ġunauthorized":3796,"æľīåĬ©":3797,"æĸĩåĮĸ":3798,"Ġconcepts":3799,"zhou":3800,"æľīåĬ©äºİ":3801,"æıĲåįĩ":3802,"ĠJava":3803,"é¡µ":3804,"ĠUsage":3805,"Ġattribut":3806,"éģ¿":3807,"Ġstatement":3808,"Ġknowledge":3809,"irtual":3810,"</":3811,"fact":3812,"lt":3813,"Ġloss":3814,"ĠAS":3815,"Ġlearns":3816,"Ġcompare":3817,"éģĵ":3818,"Ġideas":3819,"ç¾İ":3820,"ĠEurope":3821,"14":3822,"Ġitems":3823,"åı¸":3824,"Ġenjoy":3825,"åĲĹ":3826,"ĠStates":3827,"éĻĲ":3828,"Ġmaterial":3829,"Ġsociety":3830,"Ġoptions":3831,"Ġalgorithms":3832,"ä»£çłģ":3833,"ç¬¦":3834,"Ġsomething":3835,"å¹¿æ³Ľ":3836,"Ġversatile":3837,"åģ¥åº·":3838,"arl":3839,"Ġlow":3840,"Ġalready":3841,"ĠMr":3842,"Ġadapt":3843,"Ġ50":3844,"Ġneeded":3845,"æıĲä¾ĽäºĨ":3846,"éĶ®":3847,"æīĢæľī":3848,"oken":3849,"Ġmus":3850,"Ġgr":3851,"amb":3852,"odes":3853,"è¯¢":3854,"å¸ĥ":3855,"Ġconstant":3856,"Error":3857,"Supervised":3858,"è±":3859,"Ġpack":3860,"angzhou":3861,"Ġunivers":3862,"Ġregular":3863,"Ġregression":3864,"è½»":3865,"Ġcommunity":3866,"Ġguide":3867,"åľºæĻ¯":3868,"isms":3869,"åħ´è¶£":3870,"When":3871,"count":3872,"onse":3873,"Ġsound":3874,"Ġpast":3875,"æĪĺ":3876,"ç¡Ģ":3877,"åŁºç¡Ģ":3878,"ECS":3879,"ç±»åŀĭ":3880,"åĮ»çĸĹ":3881,"èĩªå·±çļĦ":3882,"abola":3883,"Unsupervised":3884,"Ġsense":3885,"Ġpain":3886,"eterm":3887,"Ġcapac":3888,"Ġatmosphere":3889,"RD":3890,"yd":3891,"oms":3892,"Ġcannot":3893,"ĠPh":3894,"ording":3895,"å¸ĮæľĽè¿ĻäºĽ":3896,"Ġargument":3897,"æ»¡":3898,"Ġclustering":3899,"En":3900,"Ġ}":3901,"Ġcenter":3902,")**":3903,"comm":3904,"land":3905,"main":3906,"omen":3907,"ott":3908,"Ġserves":3909,"åĩł":3910,"é¢ĳ":3911,"åĨµ":3912,"Ġphrase":3913,"åĳĬ":3914,"ĠShanghai":3915,"Ġprofess":3916,"éģ¿åħį":3917,"hemat":3918,"ales":3919,"aring":3920,"oding":3921,"Ġwealth":3922,"Ġcomplexity":3923,"Ġeffective":3924,"åħ¬åı¸":3925,"Function":3926,"False":3927,"ID":3928,"Sp":3929,"ä¸¤":3930,"Ġgold":3931,"ored":3932,"Ġdeploy":3933,"åľ¨çº¿":3934,"å®ŀä¾ĭ":3935,")?":3936,"pm":3937,"{\\":3938,"iting":3939,"Ġleast":3940,"åĬ¿":3941,"çĶ±":3942,"Ġparabola":3943,"è¶³":3944,"01":3945,"atory":3946,"Ġways":3947,"è®©":3948,"Ġvalu":3949,"æŀģ":3950,"Ġgenerates":3951,"åĪ¶ä½ľ":3952,"Ġimproving":3953,"Ġpurposes":3954,"Ġtemperatures":3955,"Ġtriangle":3956,"èģĶç½ĳ":3957,"Ġquickly":3958,"èĲ¥":3959,"flo":3960,"Ġpandas":3961,"Ġ`[":3962,"Ġcompliance":3963,"rie":3964,"æį¢":3965,"Ġtrack":3966,"æĪĲæľ¬":3967,"Ġeasier":3968,"force":3969,"Ġfiltered":3970,"Ġspeed":3971,"Ġfloat":3972,"Ġfacilit":3973,"ML":3974,"efficient":3975,"ties":3976,"igate":3977,"åı·":3978,"Ġremains":3979,"æĤ¨çļĦ":3980,"Scal":3981,"Ġprojects":3982,"DP":3983,"èĳ":3984,"Ġign":3985,"itect":3986,"Ġbase":3987,"Ġnormal":3988,"Ġlen":3989,"ä»ĭ":3990,"Ġtechnical":3991,"èĩªçĦ¶":3992,"Ġstrateg":3993,"çķ¥":3994,"Ġdimension":3995,"set":3996,"ĠInt":3997,"çīĩ":3998,"Ġentire":3999,"Ġreduction":4000,"Therefore":4001,"çĬ¶":4002,"gen":4003,"Ġflow":4004,"Ġhim":4005,"ift":4006,"ĠAust":4007,"Ġsimpl":4008,"åĲĪéĢĤ":4009,"å¤§æķ°æį®":4010,"åİĨ":4011,"Ġautomatically":4012,"Ġuppercase":4013,"Ġcancer":4014,"`**:":4015,"title":4016,"æ®":4017,"éŁ³":4018,"Ġ**\"":4019,"ç§ģ":4020,"èĻĳ":4021,"AR":4022,"inst":4023,"Ġcategor":4024,"iles":4025,"åĪĴ":4026,"ope":4027,"Ġcompanies":4028,"Ġtranspare":4029,"ç¨ĭåºı":4030,"Ġpurch":4031,"Ġguess":4032,"Ġstandards":4033,"Add":4034,"itors":4035,"Ġchoose":4036,"è®¸":4037,"è§ģ":4038,"å°±":4039,"å½¢":4040,"èĤ²":4041,"Ġscientific":4042,"æľªæĿ¥":4043,"Ġbehavior":4044,"éĤ":4045,"Ġfast":4046,"Ġbar":4047,"ĠEns":4048,"Ġquality":4049,"å¥½åľ°":4050,"éĩĳèŀį":4051,"DN":4052,"Ġaffect":4053,"ĠAr":4054,"Ġindex":4055,"Ġskills":4056,"æ¬¡":4057,"åİŁ":4058,"ront":4059,"45":4060,"None":4061,"oT":4062,"Ġcapt":4063,"quad":4064,"ĠFin":4065,"ĠOr":4066,"Ġemot":4067,"Ġmanaging":4068,"Ġcommit":4069,"çĶŁæ´»":4070,"Ġmemory":4071,"åĽ¾åĥı":4072,"Ġindustry":4073,"ä»¥ä¸ĭæĺ¯ä¸ĢäºĽ":4074,"sperity":4075,"be":4076,"ool":4077,"point":4078,"Ġcard":4079,"Ġbir":4080,"ĠOne":4081,"Ġconsist":4082,"Ġhealthcare":4083,"Ġprompt":4084,"Ġidentify":4085,"Ġexperiences":4086,"use":4087,"phas":4088,"strings":4089,"Ġremove":4090,"è®¾å¤ĩ":4091,"iddle":4092,"Ġprivacy":4093,"çĮ":4094,"Ġtar":4095,"ultural":4096,"ĠObject":4097,"Ġintrodu":4098,"elsius":4099,"Ġpasswords":4100,"Ġavoid":4101,"Of":4102,"Ġca":4103,"Ġcour":4104,"ention":4105,"abling":4106,"åĲ¦":4107,"ï¼īãĢĤ":4108,"ney":4109,"æİ¨èį":4110,"Ġsnipp":4111,"åĲĪéĢĤçļĦ":4112,"æİ¨èįĲ":4113,"30":4114,"cies":4115,"Ġluck":4116,"iver":4117,"ä¸ĢæŃ¥":4118,"ä¾¿":4119,"çīĪ":4120,"pportun":4121,"Ġengaging":4122,"Ġscalable":4123,"col":4124,"Ġbrain":4125,"roid":4126,"Ġchild":4127,"load":4128,"æĸ¹æ¡Ī":4129,"defined":4130,"Ġload":4131,"Ġwritten":4132,"èĢĥèĻĳ":4133,"aur":4134,"ðŁ":4135,"Ġthreat":4136,"rab":4137,"Ġ24":4138,"ĠEm":4139,"Ġparticle":4140,"è¾ĥ":4141,"ameters":4142,"Ġdefined":4143,"param":4144,"Ġelectr":4145,"é£İéĻ©":4146,"Your":4147,"por":4148,"isf":4149,"Ġur":4150,"Ġsubject":4151,"è®¤":4152,"Ġretrie":4153,"Ġsym":4154,"è½½":4155,"Ġoperating":4156,"department":4157,"//":4158,"º«":4159,"èº«":4160,"Ġport":4161,"Ġdyn":4162,"ĠHangzhou":4163,"åı¯ä»¥éĢļè¿ĩ":4164,"rypt":4165,"æĽ´æĸ°":4166,"Ġhigher":4167,"Ġdomain":4168,"(-":4169,"Ġself":4170,"Ġcause":4171,"ĠCons":4172,"ä»ĺ":4173,"ĠInitial":4174,"è¿Ļä¸ª":4175,"æĽ´å¥½åľ°":4176,"Ġphil":4177,"Ġtopics":4178,"ç´ł":4179,"æ¸ħ":4180,"ä»»ä½ķ":4181,"Cont":4182,"cosystem":4183,"æķĻèĤ²":4184,"ee":4185,"èĥ":4186,"Ġspir":4187,"æĿĤ":4188,"Ġvariables":4189,"Ġmatrix":4190,"åĪĽæĸ°":4191,"banana":4192,"SQL":4193,"Ġled":4194,"è¿ŀ":4195,"å¸¦":4196,"Ġrecurs":4197,"Ġmultip":4198,"Ġfamous":4199,"fix":4200,"mall":4201,"Ġmove":4202,"ival":4203,"Ġprot":4204,"Ġenabling":4205,"plications":4206,"nderstand":4207,"æĬķèµĦ":4208,"æ¦Ĥ":4209,"inc":4210,"Ġnarr":4211,"Initial":4212,"è¡Įä¸ļ":4213,"Ġcalculated":4214,"Ġexpand":4215,"Ġrecommendation":4216,"Ġconnection":4217,"Ġcorresponding":4218,"aa":4219,"Ġsl":4220,"Ġyoung":4221,"Ġspread":4222,"Ġfeature":4223,"Ġsmart":4224,"Ġserve":4225,"Ġengine":4226,"éļıçĿĢ":4227,"tics":4228,"Ġturn":4229,"lean":4230,"Ġethical":4231,"ĠFirew":4232,"è¯į":4233,"Ġworking":4234,"aching":4235,"Ġtea":4236,"éĹ¨":4237,"èĩ´":4238,"2023":4239,"éĶĢ":4240,"Ġdemand":4241,"Ġbuilding":4242,"Ġzero":4243,"Ġfirewall":4244,"Scalability":4245,"init":4246,"Ġbillion":4247,"åħī":4248,"Ġsetting":4249,"çº§":4250,"Ġresponse":4251,"æŀĦå»º":4252,"Ġcarbon":4253,"Create":4254,"da":4255,"ground":4256,"å£":4257,"Ġcreative":4258,"Ġhandles":4259,"Ġbecomes":4260,"Ġcentury":4261,"Ġpeace":4262,"æ°Ķ":4263,"ges":4264,"Ġmal":4265,"Ġliter":4266,"olving":4267,"Ġleft":4268,"Ġspoken":4269,"Ġrap":4270,"å±Ĥ":4271,"æ¯ıä¸ª":4272,"Ġarchitect":4273,"Ġsatisf":4274,"largest":4275,"gment":4276,"self":4277,"tm":4278,"Ġhier":4279,"Ġ-\\":4280,"ĠSet":4281,"ĠSome":4282,"ĠSupport":4283,"å¢ŀåĬł":4284,"Ġsafe":4285,"going":4286,"group":4287,"tical":4288,"çĹ":4289,"iti":4290,"iding":4291,"user":4292,"ogram":4293,"ocol":4294,"tenance":4295,"å®ŀéĻħ":4296,"Ġmathemat":4297,"Ġessence":4298,"Ġinfluen":4299,"Ġcreation":4300,"Ġoverall":4301,"é«ĺæķĪ":4302,"Ġconverts":4303,"å¤įæĿĤ":4304,"çĽĳæİ§":4305,"ech":4306,"Ġcur":4307,"Ġold":4308,"Ġbrand":4309,"Ġnow":4310,"Ġreas":4311,"ĠCPU":4312,"Ġview":4313,"ĠBenn":4314,"Ġabs":4315,"å¾ģ":4316,"Ġexpress":4317,"Ġdeeply":4318,"Ġconcise":4319,"Ġwebsites":4320,"Both":4321,"ĠX":4322,"Ġopportun":4323,"Ġdone":4324,"Ġleaves":4325,"Ġsupp":4326,"ç»į":4327,"ĠDo":4328,"ä¼°":4329,"ä¿ĥ":4330,"Ġemphas":4331,"ĠJane":4332,"å¿Ĺ":4333,"Ġdatabases":4334,"é¢Ħæµĭ":4335,"azon":4336,"Ġadditional":4337,"ä»ĭç»į":4338,"Ġdimensionality":4339,"inux":4340,"ounter":4341,"Ġstored":4342,"åħ¶ä»ĸ":4343,"----":4344,"æ³¨æĦı":4345,"çĽ¸åħ³":4346,"Ġlevels":4347,"100":4348,"js":4349,"Ġpress":4350,"Ġmar":4351,"ĠHT":4352,"ĠWord":4353,"è½¦":4354,"Ġcommunic":4355,"ħ§":4356,"åĪĿ":4357,"ructions":4358,"epend":4359,"æĺ¯åĲ¦":4360,"Ġpredefined":4361,"æĿĲ":4362,"ĠReg":4363,"Ġanswer":4364,"è¿Ĳè¡Į":4365,"Ġentanglement":4366,"aaS":4367,"wh":4368,"erform":4369,"Ġmath":4370,"Ġbooks":4371,"ivery":4372,"sequ":4373,"adem":4374,"Ġspaces":4375,"è¯´":4376,"ç»ĵæŀĦ":4377,"atch":4378,"Ġfost":4379,"Ġbrow":4380,"Ġonce":4381,"Ġmapping":4382,"Ġprovider":4383,"Ġpaired":4384,"Ġsurface":4385,"Ġcombination":4386,"Ġtuple":4387,")(":4388,"head":4389,"Ġleap":4390,"resh":4391,"ĠNe":4392,"Ġprec":4393,"è´Ń":4394,"Ġposition":4395,"24":4396,"Ġrom":4397,"Ġsure":4398,"Ġcore":4399,"ä»¤":4400,"Ġneural":4401,"ffective":4402,"Example":4403,"ĠEnglish":4404,"Ġlayer":4405,"lusive":4406,"bit":4407,"Ġfinal":4408,"Ġdates":4409,"Ġsubs":4410,"ä¹Ĳ":4411,"å·²":4412,"Ġarr":4413,"æĮĳ":4414,"åĬłåħ¥":4415,"Ġfocuses":4416,"return":4417,"Ġuntil":4418,"ium":4419,"heit":4420,"Ġcare":4421,"çļĦéĹ®é¢ĺ":4422,"ĠSecurity":4423,"ĠIts":4424,"acks":4425,"Ġchanging":4426,"renheit":4427,"ĠWhat":4428,"ahrenheit":4429,"è±¡":4430,"erce":4431,"Ġslight":4432,"Ġorders":4433,"Ġ14":4434,"ä¹¦":4435,"Ġprev":4436,"Ġcompet":4437,"æĿ¡":4438,"tens":4439,"ĠTherefore":4440,"Ġefforts":4441,"grouping":4442,"^{":4443,"Ã©":4444,"å¿µ":4445,"ä¸ĭéĿ¢":4446,"ĠKing":4447,"å¦Ĥæŀľä½ł":4448,"Ġlaw":4449,"éĩıåŃĲè®¡ç®Ĺ":4450,"Ġtables":4451,"Ġexchange":4452,"è¿ĳ":4453,"Ġdiff":4454,"ĠYork":4455,"Ġhumans":4456,"Ġreads":4457,"Ġoffering":4458,"Ġproblems":4459,"Ġmoon":4460,"æĮĳæĪĺ":4461,"_{":4462,"gle":4463,"ĠEC":4464,"ĠFind":4465,"lock":4466,"ä»¥åıĬ":4467,"aced":4468,"æł¸":4469,"å»ºç«ĭ":4470,"çī¹å®ļ":4471,"é£Ł":4472,"sin":4473,"world":4474,"},":4475,"orn":4476,"orable":4477,"Ġdra":4478,"cean":4479,"osoph":4480,"Ġ+=":4481,"area":4482,"Ġincreasing":4483,"é¦ĸ":4484,"ä»ĸä»¬":4485,"Us":4486,"^{-":4487,"Ġgen":4488,"ĠDis":4489,"Ġotherwise":4490,"Ġcolors":4491,"earch":4492,")`**:":4493,"çº¦":4494,"éļĲ":4495,"åģļ":4496,"æ´»åĬ¨":4497,"çŃĸçķ¥":4498,"Ġsensitive":4499,"Ġcourse":4500,"oh":4501,"oop":4502,"}(":4503,"æĳ":4504,"èı":4505,"ĠSe":4506,"ĠPass":4507,"æıĲéĹ®":4508,"plicates":4509,"Ġkil":4510,"ype":4511,"Ġmatplotlib":4512,"Ġintegrity":4513,"ç§ĳæĬĢ":4514,"æĥħåĨµ":4515,"judice":4516,"è¯Ħä¼°":4517,"my":4518,"ton":4519,"æķ°åŃĹ":4520,"agraph":4521,"Ġrelated":4522,"Ġcovers":4523,"åĩĨå¤ĩ":4524,"éļıæĹ¶":4525,"ĠParameters":4526,"Ġmeasure":4527,"ĠNumbers":4528,"Ġstreng":4529,"ä¿ĥè¿Ľ":4530,"find":4531,"vant":4532,"Ġey":4533,"Ġjour":4534,"Ġinstructions":4535,"åħ¨çĲĥ":4536,"ç«¯":4537,"Ġdevice":4538,"Ġreferred":4539,"customer":4540,"åĶ":4541,"icult":4542,"Ġmind":4543,"edback":4544,"ĠEast":4545,"key":4546,"ĠMe":4547,"è¯¥":4548,"ç½²":4549,"scale":4550,"Ġbeginners":4551,"ĠDefine":4552,"hello":4553,"ç®ĢåįķçļĦ":4554,"Ġdynam":4555,"ES":4556,"af":4557,"aten":4558,"ulate":4559,"Ġprosperity":4560,"Ġinteractions":4561,"æĸĩæľ¬":4562,"Ġbelie":4563,"ij":4564,"Ġactions":4565,"reverse":4566,"Ġwarm":4567,"utes":4568,"ĠAPI":4569,"Ġplays":4570,"Ġaccording":4571,"Ġdeveloped":4572,"æĽ´å¤ļ":4573,"èĩ³":4574,"Ġdecision":4575,"Ġidentity":4576,"èĻļ":4577,"è·¯":4578,"é¦Ī":4579,"ĠAndroid":4580,"side":4581,"aling":4582,"Ġharm":4583,"Ġhouse":4584,"ç§°":4585,"Ġparagraph":4586,"ä½ĵéªĮ":4587,"Ġrecommended":4588,"Ġiterate":4589,"éĥ¨ç½²":4590,"ĠDevelop":4591,"Ġseparated":4592,"Ġurban":4593,"direct":4594,"é¥":4595,"Ġmarri":4596,"Ġtoday":4597,"Ġbi":4598,"Ġecosystem":4599,"radius":4600,"employees":4601,"åĲ¯":4602,"apan":4603,"ception":4604,"matrix":4605,"Ġreliability":4606,"randint":4607,"åıĤä¸İ":4608,"Ġmole":4609,"ĠGenerate":4610,"ĠAmerican":4611,"Ġdifficult":4612,"Ġobs":4613,"ara":4614,"icing":4615,"igns":4616,"ĠUp":4617,"Ġgrowing":4618,"éĢīæĭ©åĲĪéĢĤçļĦ":4619,"æ¸¸":4620,"éªĮè¯ģ":4621,"Ġaccounts":4622,"åıįé¦Ī":4623,"ĠFirewalls":4624,"ĠBennet":4625,"Access":4626,"Eco":4627,"UP":4628,"orth":4629,"step":4630,"uses":4631,"éĩĬ":4632,"æĬ¥":4633,"æĶ¿":4634,"è¿Ľä¸ĢæŃ¥":4635,"åħ³éĶ®":4636,"èī¯":4637,"æī¾åĪ°":4638,"tml":4639,"Ġprevious":4640,"echn":4641,"åĸ":4642,"order":4643,"è¾ĳ":4644,"Ġresponses":4645,"æ®µ":4646,"OS":4647,"test":4648,"inci":4649,"ilk":4650,"####":4651,"Ġanom":4652,"æī©":4653,"ological":4654,"Ġconsum":4655,"Ġphone":4656,"Ġcoefficient":4657,"çī¹å¾ģ":4658,"Ġinfluence":4659,"Ġcomponents":4660,"çĹħ":4661,"Em":4662,"lation":4663,"rim":4664,"èĽ":4665,"Ġfar":4666,"Ġpost":4667,"Ġphen":4668,"Ġinform":4669,"ĠMod":4670,"ĠRec":4671,"å¯¹ä½łæľī":4672,"Ġprotection":4673,"æīĢå¸®åĬ©":4674,"float":4675,"123":4676,"Aut":4677,"TP":4678,"lim":4679,"Ġpd":4680,"Ġmis":4681,"Ġmix":4682,"ĠFr":4683,"è¯Ŀ":4684,"ĠRoad":4685,"ryption":4686,"åĮĸçļĦ":4687,"\"]":4688,"AL":4689,"Flow":4690,"Now":4691,"over":4692,"tle":4693,"Ġtree":4694,"Ġcats":4695,"icon":4696,"oting":4697,"opy":4698,"ĠReturn":4699,"Ġregion":4700,"Ġremov":4701,"Ġstarting":4702,"Ġobjects":4703,"Ġfields":4704,"Ġvolume":4705,"èıľ":4706,"mit":4707,"met":4708,"Ġaway":4709,"omial":4710,"Ġnav":4711,"Ġsegment":4712,"æİĴ":4713,"Ġfilters":4714,"Ġhandling":4715,"éĻį":4716,"æ¨¡åŀĭçļĦ":4717,"Ġsymbols":4718,"Ġpaper":4719,"ĠDefinition":4720,"Alice":4721,"ambda":4722,"Ġtarget":4723,"Ġsnippet":4724,"50":4725,"An":4726,"LP":4727,"Qu":4728,"oon":4729,"Ġsect":4730,"Ġmom":4731,"Ġfort":4732,"Ġstars":4733,"ĠSum":4734,"ä¹Ī":4735,"Ġtrade":4736,"versed":4737,"èµ·":4738,"æ¨¡å¼ı":4739,"Ġvisual":4740,"çķĮ":4741,"ä¸įåĲĮçļĦ":4742,"ä¸ĵä¸ļ":4743,"Ġrapid":4744,"æĿĲæĸĻ":4745,"Ġphenomen":4746,"pri":4747,"}}":4748,"Ġtim":4749,"rets":4750,"atives":4751,"Ġrout":4752,"Ġscen":4753,"Ġpartners":4754,"comes":4755,"è¾ĵåĩº":4756,"Import":4757,"Ġeducation":4758,"ç»ĻæĪĳ":4759,"Ġphilosoph":4760,"ls":4761,"hent":4762,"Ġstories":4763,"ogly":4764,"etwork":4765,"astic":4766,"Ġapply":4767,"aily":4768,"Ġauthor":4769,"ç¬¬":4770,"åĳ½ä»¤":4771,"Ġdiverse":4772,"Ġbirth":4773,"Ġelectrical":4774,"([":4775,"Ġcrypt":4776,"Ġresource":4777,"Ġhaving":4778,"ference":4779,"plication":4780,"Ġdescending":4781,"å¾ĭ":4782,"Ġsmaller":4783,"Ġprofound":4784,"æ¯Ķå¦Ĥ":4785,"Ġdiscovering":4786,"Ġhierogly":4787,"Ġhieroglyph":4788,"He":4789,"tings":4790,"Ġdance":4791,"Ġge":4792,"Ġitem":4793,"Ġrule":4794,"acters":4795,"output":4796,"Ġeval":4797,"ensor":4798,"å¤§çļĦ":4799,"Ġperforming":4800,"Ġdepth":4801,"Ġprediction":4802,"æ²Ł":4803,"Ġblack":4804,"Ġreleased":4805,"Ġthreats":4806,"erformance":4807,"OIN":4808,"cent":4809,"iation":4810,"void":4811,"Ġ__":4812,"ators":4813,"Ġdaily":4814,"rad":4815,"éĢı":4816,"åĲ«":4817,"ountains":4818,"Ġforms":4819,"Ġanywhere":4820,"Ġregard":4821,"Ġjoin":4822,"æ¡£":4823,"éĺ¿éĩĮäºĳçļĦ":4824,"Ġencryption":4825,"ç²¾":4826,"filtered":4827,"ä¹ĭéĹ´çļĦ":4828,"ĠJavaScript":4829,"First":4830,"IP":4831,"Ġaction":4832,"Ġfest":4833,"olve":4834,"è¯¯":4835,"ĠOpen":4836,"Ġweek":4837,"åĲĪä½ľ":4838,"Ġjo":4839,"Ġrunning":4840,"Ġintegration":4841,"Thus":4842,"Ġrecords":4843,"medi":4844,"ĠInstead":4845,"èĳĹ":4846,"Ap":4847,"Sim":4848,"inant":4849,"Ġfra":4850,"Ġmatter":4851,"ĠMy":4852,"soft":4853,"Ġcreates":4854,"iveness":4855,"Ġproviders":4856,"éĻ¤":4857,"Ġmultiples":4858,"Ġbackground":4859,"çĥŃ":4860,"second":4861,"è¿ŀæİ¥":4862,"èĽĭ":4863,"18":4864,"On":4865,"æĤ":4866,"Ġtail":4867,"Ġstyle":4868,"antic":4869,"Ġtech":4870,"Ġcred":4871,"negative":4872,"å¾®":4873,"æľºåĪ¶":4874,"Ġcool":4875,"å®īåħ¨æĢ§":4876,"Ġverify":4877,"ç¤¾åĮº":4878,"Ġrelevant":4879,"ĠCreate":4880,"Ġanomaly":4881,"!\"":4882,"Cost":4883,"It":4884,"ev":4885,"tes":4886,"Ġcities":4887,"Ġpoly":4888,"Ġchecking":4889,"anguage":4890,"Ġmemorable":4891,"æ·±åº¦":4892,"Ġforest":4893,"Ġcircuits":4894,"Ġembrace":4895,"Ġgovernment":4896,"èĻļæĭŁ":4897,"Ġfiction":4898,"Ġlives":4899,"Ġstates":4900,"Ġ17":4901,"tend":4902,"ä¹°":4903,"Ġgenerated":4904,"æĪĲåĬŁ":4905,"iques":4906,"Ġcommonly":4907,"Ġlocated":4908,"Ġexcell":4909,"Ġstatus":4910,"13":4911,"Def":4912,"eor":4913,"ªĴ":4914,"æĴ":4915,"unique":4916,"ything":4917,"Ġdeb":4918,"Ġscatter":4919,"å°Ŀ":4920,"Ġadvant":4921,"éģĩ":4922,"Ġquestion":4923,"ĠAmazon":4924,"åĩĨç¡®":4925,"æĥ³äºĨè§£":4926,"Ġtrying":4927,"Ġvaluable":4928,"åªĴ":4929,"çŁ":4930,"Ġvoice":4931,"åĬ±":4932,"è¯¾":4933,"Ġoutcomes":4934,"ç¨³":4935,"Ġphot":4936,"Ġglobally":4937,"Ġinvolved":4938,"Ġpolicy":4939,"çģµ":4940,"Ġslightly":4941,"Un":4942,"vity":4943,"ison":4944,"Ġbig":4945,"ife":4946,"ĠIns":4947,"Ġ(-":4948,"åħħ":4949,"orting":4950,"ĠRos":4951,"Ġshad":4952,"ä¿®":4953,"å¯Į":4954,"cessing":4955,"åŁ¹":4956,"Ġassistance":4957,"Ġedge":4958,"çĽ´æİ¥":4959,"ĠInitialize":4960,"Ġphenomenon":4961,"gs":4962,"èĭ":4963,"Ġmission":4964,"Ġprinci":4965,"Ġrepe":4966,"Ġsummar":4967,"åħ³äºİ":4968,"çī¹çĤ¹":4969,"Ġrelationships":4970,"Ġproduce":4971,"Ġfirewalls":4972,"Ġseason":4973,"Ġrisk":4974,"YY":4975,"xy":4976,"Ġåľ¨":4977,"oura":4978,"Ġlines":4979,"Ġlik":4980,"Ġearth":4981,"Ġhours":4982,"lope":4983,"ansion":4984,"æŃ¤":4985,"Ġincreased":4986,"Ġanalytics":4987,"Ġfigure":4988,"icrosoft":4989,"Ġmoral":4990,"éļĲç§ģ":4991,"åªĴä½ĵ":4992,"bers":4993,"cl":4994,"pass":4995,"outh":4996,"ä¸Ķ":4997,"ãĢĬ":4998,"ãĢĭ":4999,"Ġgain":5000,"è¯¦":5001,"ruits":5002,"ĠChar":5003,"Ġmanip":5004,"ç§»":5005,")`:":5006,"avor":5007,"ĠYour":5008,"Ġblood":5009,"Ġsomeone":5010,"Ġmatch":5011,"ç¤¾äº¤":5012,"Ġvolt":5013,"Ġphysics":5014,"åĪĹè¡¨":5015,"Ġlayers":5016,"Ġmeasures":5017,"square":5018,"Ġflexible":5019,"ĠAusten":5020,"ĠConsider":5021,"Ġsupply":5022,"Sum":5023,"eting":5024,"ä¸ī":5025,"ided":5026,"Ġheat":5027,"tegration":5028,"ĠJapan":5029,"Ġprinted":5030,"æĸĩæ¡£":5031,"issions":5032,"Trans":5033,"è§Ĩé¢ĳ":5034,"è®°å½ķ":5035,"Ġcategories":5036,"æ¦Ĥå¿µ":5037,"API":5038,"average":5039,"effective":5040,"ma":5041,"çħ§":5042,"Ġsizes":5043,"Ġiniti":5044,"Ġdire":5045,"Ġet":5046,"Ġhost":5047,"quality":5048,"æŀ¶":5049,"ï¼īãĢģ":5050,"Ġpurs":5051,"Ġcoordin":5052,"Ġoperation":5053,"åĿĩ":5054,"Ġsuccessful":5055,"Pride":5056,"æĲľ":5057,"Ġmusic":5058,"Fe":5059,"Where":5060,"cel":5061,"volution":5062,"itical":5063,"Ġbinary":5064,"chang":5065,"Ġforward":5066,"Ġextens":5067,"Ġsuper":5068,"ĠBu":5069,"Ġpopul":5070,"Ġcountry":5071,"Ġconcaten":5072,"Ġreflecting":5073,"Ġrestaur":5074,"Ġretrieve":5075,"Ġsegmentation":5076,"Ġfortune":5077,"Ġevalu":5078,"æĲľç´¢":5079,"$,":5080,"man":5081,"inking":5082,"eria":5083,"items":5084,"ĠSun":5085,"Ġwhose":5086,"ĠParty":5087,"å®ĺ":5088,"ĠWith":5089,"åĨĮ":5090,"æµİ":5091,"éĩıçļĦ":5092,"Ġtechnological":5093,"Ġcapital":5094,"ç»ıæµİ":5095,"æĺİç¡®":5096,"Ġfloating":5097,"Ġfriends":5098,"ĠPrejudice":5099,"ĠInternet":5100,"Enter":5101,"uis":5102,"orial":5103,"ither":5104,"Ġdark":5105,"åı²":5106,"Ġhead":5107,"éĩĩ":5108,"Ġnote":5109,"Ġsecrets":5110,"Ġroles":5111,"ersonal":5112,"Ġinsp":5113,"Ġsunlight":5114,"Ġeducational":5115,"ispers":5116,"æ²ŁéĢļ":5117,"Customer":5118,"Ph":5119,"Ġop":5120,"Ġfit":5121,"Ġnative":5122,"ĠTom":5123,"Ġthird":5124,"Ġwhispers":5125,"usion":5126,"ooth":5127,"Ġ[\"":5128,"Ġappropri":5129,"ĠValue":5130,"ç§¯æŀģ":5131,"Ġholds":5132,"Ġcollaboration":5133,"\">":5134,"Do":5135,"ief":5136,"Ġtips":5137,"Ġsem":5138,"encies":5139,"unct":5140,"è¿ľ":5141,"æķħ":5142,"Ġcold":5143,"Ġdecimal":5144,"åĨ³çŃĸ":5145,"Ġaudience":5146,"ĠIndia":5147,"èİ·åıĸ":5148,"(\\":5149,"DATE":5150,"Gener":5151,"Next":5152,"cript":5153,"Ġpage":5154,"etta":5155,"ĠMa":5156,"ä¸ªæĢ§":5157,"Ġhash":5158,"Ġfeedback":5159,"æµ·":5160,"Ġlocation":5161,"Ġagree":5162,"show":5163,"Ġtrends":5164,"Ġmanaged":5165,"ç»´æĬ¤":5166,"Ġexcellent":5167,"ĠRosetta":5168,"come":5169,"rea":5170,"elines":5171,"ama":5172,"ĠIoT":5173,"Ġvirtual":5174,"antity":5175,"å¤ª":5176,"ffee":5177,"èĥ½æºĲ":5178,"\\):":5179,"Ġnews":5180,"æī§":5181,"Ġmaintenance":5182,"ï¼īï¼Į":5183,"Ġsolar":5184,"Ġconfig":5185,"Ġcycle":5186,"Ġmonitoring":5187,"Ġcra":5188,"ĠAp":5189,"ĠLoc":5190,"æıı":5191,"æĿ¿":5192,"åĽ´":5193,"æİ¢":5194,"åįı":5195,"è§£éĩĬ":5196,"å®ŀè·":5197,"å®ļä¹ī":5198,"augh":5199,"ä¸Ĭè¿°":5200,"Ġlimited":5201,"Ġcomponent":5202,"Ġnumerous":5203,"æĺ¯ä¸Ģç§į":5204,"Ġmaterials":5205,"ĠEnsure":5206,"ç¨³å®ļ":5207,"å®ŀè·µ":5208,"'ll":5209,"çª":5210,"Ġsch":5211,"Ġdest":5212,"Ġult":5213,"Ġlever":5214,"inder":5215,"Ġprefix":5216,"Ġinstalled":5217,"Ġpractice":5218,"ç©º":5219,"Ġproperties":5220,"Ġopportunities":5221,"Ġtheore":5222,"Ġfoot":5223,"oun":5224,"Ġbx":5225,"edd":5226,"ĠOther":5227,"Ġpred":5228,"Ġ1000":5229,"ployee":5230,"Ġprivate":5231,"Ġadvancements":5232,"21":5233,"htt":5234,"iel":5235,"Ġ!":5236,"Ġ|":5237,"ä¸°":5238,"Ġhot":5239,"Ġcome":5240,"angled":5241,"aving":5242,"ustomers":5243,"Ġdistin":5244,"è¶ħ":5245,"å¦Ĥæŀľä½łæľī":5246,"èĦĳ":5247,"commerce":5248,"Ġchildren":5249,"ohn":5250,"åĶ®":5251,"'`":5252,"WS":5253,"èĪ":5254,"Ġtang":5255,"Ġever":5256,"Ġ\\,":5257,"ĠAccess":5258,"ĠSince":5259,"Ġwhite":5260,"Ġ21":5261,"Ġrich":5262,"åĲ¸":5263,"Ġmodify":5264,"å·®":5265,"è¿Ļç§į":5266,"åıĳçİ°":5267,"å¿ħ":5268,"Ġenvironments":5269,"Ġeconomy":5270,"Ġcontributions":5271,"Ġproperty":5272,"Ġappears":5273,"Ġvideo":5274,"ĠIntelligence":5275,"mallest":5276,"'d":5277,"Ġtap":5278,"Ġcalls":5279,"Ġpers":5280,"terate":5281,"ĠDa":5282,"ĠMon":5283,"Ġquiet":5284,"åı¯ä»¥ä½¿çĶ¨":5285,"Ġemails":5286,"è¿ĽæŃ¥":5287,"åĬłå¯Ĩ":5288,"ĠProv":5289,"æ·»":5290,"éĶĻ":5291,"Ġrecognized":5292,"åıĤæķ°":5293,"æĹ¥å¿Ĺ":5294,"Ġestab":5295,"Ġpairs":5296,"Ġrecursion":5297,"å°Ŀè¯ķ":5298,"Cultural":5299,"html":5300,"len":5301,"ĸåķ":5302,"Ġsay":5303,"alle":5304,"elta":5305,"Ġanim":5306,"åĴĸåķ":5307,"Ġclause":5308,"Ġ['":5309,"elligent":5310,"Ġcontexts":5311,"Ġfrequently":5312,"Ġelectron":5313,"Ġlibraries":5314,"kyo":5315,"Ġwealthy":5316,"directory":5317,"åĴĸåķ¡":5318,"eper":5319,"Ġsit":5320,"isy":5321,"ifts":5322,"ĠSo":5323,"éĢł":5324,"ustain":5325,"Ġplt":5326,"Ġplaces":5327,"ĠComp":5328,"Ġamounts":5329,"Ġthought":5330,"åİĨåı²":5331,"çĮ«":5332,"æī©å±ķ":5333,"ä¸°å¯Į":5334,"lict":5335,"é¼":5336,"redu":5337,"Ġflu":5338,"Ġpip":5339,"Ġden":5340,"Ġble":5341,"ĠTra":5342,"çļĦåŁºæľ¬":5343,"Ġstay":5344,"Ġve":5345,"odd":5346,"ĠSub":5347,"emove":5348,"ĠHer":5349,"çīĮ":5350,"åŁİ":5351,"Ġprogress":5352,"Ġdetect":5353,"Ġcover":5354,"ĠServices":5355,"Ġcontributing":5356,"ROUP":5357,"ç§ĳåŃ¦":5358,"Ġprofessional":5359,"Ġstrength":5360,"ijing":5361,"Ġmoment":5362,"è¯¾ç¨ĭ":5363,"Calculate":5364,"ET":5365,"tr":5366,"ç¢":5367,"Ġslow":5368,"ald":5369,"ership":5370,"idence":5371,"ĠShe":5372,"agn":5373,"Ġadds":5374,"Ġsubstitute":5375,"çĦ¶åĲİ":5376,"Ġoccurre":5377,"Ġextract":5378,"èĮĥ":5379,"Ġfigures":5380,"Ġlinked":5381,"IM":5382,"oming":5383,"ĠSystem":5384,"Ġdele":5385,"ä»¥ä¸Ĭ":5386,"Ġ42":5387,"Ġindepend":5388,"Ġdecade":5389,"Ġclassic":5390,"Ġcontribute":5391,"å½ĵçĦ¶":5392,"å¢ŀå¼º":5393,"Impro":5394,"Ġpresent":5395,"Ġignoring":5396,"å¯¹ä½łæľīæīĢå¸®åĬ©":5397,"Ġlikely":5398,"è¯¦ç»Ĩ":5399,"'ve":5400,"Or":5401,"nomial":5402,"Ġill":5403,"Ġsample":5404,"Ġfall":5405,"Ġfull":5406,"alphanumeric":5407,"idth":5408,"ĠLet":5409,"Ġ40":5410,"éļ¾":5411,"Ġintegrate":5412,"Ġarticles":5413,"Ġnormalized":5414,"Ġjourney":5415,"tu":5416,"your":5417,"Ġcoding":5418,"Ġface":5419,"Ġbarri":5420,"Ġconsole":5421,"Ġexcept":5422,"ĠHar":5423,"ĠOff":5424,"çŃ¾":5425,"ä½łèĥ½":5426,"Ġinterpre":5427,"éĺħ":5428,"Ġlengths":5429,"Ġupdated":5430,"ç»ĵæŀľ":5431,"Ġindicating":5432,"æŁĲ":5433,"æ£ĢæŁ¥":5434,"ä¸¤ä¸ª":5435,"ĠWords":5436,"æ·±åº¦åŃ¦ä¹ł":5437,"unctuation":5438,"://":5439,"reversed":5440,"Ġcopy":5441,"orking":5442,"Ġwa":5443,"entence":5444,"ceed":5445,"ä¼Ĺ":5446,"æİª":5447,"Ġdecentral":5448,"ĠKey":5449,"Ġelectric":5450,"Ġmechanisms":5451,"Ġregulations":5452,"Ġexecut":5453,"Ġdreams":5454,"ĠAppro":5455,"Ġuniverse":5456,"Ġhieroglyphs":5457,"Sh":5458,"aw":5459,"dr":5460,"ires":5461,"Ġ->":5462,"æĪı":5463,"æĪĲä¸º":5464,"ç¡®å®ļ":5465,"coordin":5466,"åħ³ç³»":5467,"However":5468,"æİ¨åĬ¨":5469,"åıĺåĮĸ":5470,"Ġstudents":5471,"cherry":5472,"é¡µéĿ¢":5473,"Ġpolynomial":5474,"Ġvoltage":5475,"æİªæĸ½":5476,"Hist":5477,"Äģ":5478,"é»":5479,"etimes":5480,"Ġcho":5481,"å¤±":5482,"ĠFilter":5483,"Ġrather":5484,"çĽĬ":5485,"fficiency":5486,"ĠStone":5487,"Ġparticip":5488,"values":5489,"âĢĿãĢĤ":5490,"---":5491,"åİ»":5492,"ç¥ŀ":5493,"æ¶Īè´¹":5494,"Ġmolecul":5495,"æ·»åĬł":5496,"total":5497,"}\\).":5498,"Ġtou":5499,"ingu":5500,"Ġmen":5501,"Ġrect":5502,"Ġhyd":5503,"Ġhope":5504,"ĠIs":5505,"ĠCap":5506,"ĠSim":5507,"ulti":5508,"Ġprices":5509,"Ġsea":5510,"ĠGu":5511,"ramew":5512,"Ġcollect":5513,"å¥¶":5514,"æ³ķå¾ĭ":5515,"Ġcentral":5516,"Ġstands":5517,"ĠCompute":5518,"èģĮ":5519,"éĥ¨åĪĨ":5520,"åĽ½éĻħ":5521,"åıĬæĹ¶":5522,"æīĭæľº":5523,"pyplot":5524,"ĠParis":5525,"arlie":5526,"Ġarchitecture":5527,"ĠDevelopment":5528,"éĢıæĺİ":5529,"ĠDaisy":5530,"Ġcul":5531,"amount":5532,"å®¡":5533,"åºĹ":5534,"ensive":5535,"Ġtechniques":5536,"Ġblocks":5537,"åı¯èĥ½ä¼ļ":5538,"Ġsometimes":5539,"Ġregulatory":5540,"No":5541,"ĊĊĠĠ":5542,"Ģä¹Ī":5543,"ĭåĬ¿":5544,"ename":5545,"umes":5546,"Ġvibr":5547,"ä»Ģä¹Ī":5548,"Ġwhis":5549,"ude":5550,"ç»§":5551,"Ġdeveloping":5552,"è¡Įä¸º":5553,"è®¡ç®Ĺæľº":5554,"Ġpattern":5555,"è¶ĭåĬ¿":5556,"Ġrequired":5557,"ĠAddress":5558,"æ²»":5559,"äºĴèģĶç½ĳ":5560,"Ġcleaned":5561,"ĠBeijing":5562,"ometers":5563,"Ġromantic":5564,"Ġappropriate":5565,"æī§è¡Į":5566,"And":5567,"æ¤":5568,"Ġtreat":5569,"Ġmit":5570,"ĠSilk":5571,"æ±ł":5572,"æĶ¯ä»ĺ":5573,"åĵģçīĮ":5574,"ä»İèĢĮ":5575,"Ġbegins":5576,"åĪĽå»ºä¸Ģä¸ª":5577,"æīĵå¼Ģ":5578,"Ġ!=":5579,"Ġnodes":5580,"ams":5581,"Ġconve":5582,"Ġshape":5583,"Ġhelpful":5584,"ients":5585,"iece":5586,"ĠWeb":5587,"Ġimprovements":5588,"ourses":5589,"ĠTransform":5590,"Ġcompared":5591,"nderstanding":5592,"æĥ³äºĨè§£ä¸Ģä¸ĭ":5593,"RL":5594,"circ":5595,"function":5596,"pur":5597,"vas":5598,"ww":5599,"esc":5600,"Ġpat":5601,"Ġheight":5602,"ĠMark":5603,"ĠRep":5604,"æĢĿ":5605,"While":5606,"plicit":5607,"å½Ĵ":5608,"æ³¨åĨĮ":5609,"Ġpresence":5610,"Ġconversation":5611,"æĶ¶éĽĨ":5612,"digit":5613,"Initialization":5614,"èī¯å¥½çļĦ":5615,"HT":5616,"fig":5617,"mp":5618,"ç¿":5619,"itor":5620,"ĠTest":5621,"iff":5622,"Ġgives":5623,"ĠCol":5624,"plain":5625,"term":5626,"åħĭ":5627,"ores":5628,"emper":5629,"elling":5630,"Ġaccom":5631,"ä¾Ŀ":5632,"åħ·æľī":5633,"è¶Ĭ":5634,"çī¹åĪ«":5635,"Ġlongest":5636,"Ġstarts":5637,"æ¬¾":5638,"Ġconflict":5639,"Ġoptimize":5640,"Ġdescribed":5641,"çĻ»":5642,"ĠHTML":5643,"é¦ĸåħĪ":5644,"Using":5645,"Ġkilometers":5646,"Ġobserv":5647,"æ¸¸æĪı":5648,"33":5649,"cast":5650,"first":5651,"Ġsw":5652,"Ġful":5653,"imately":5654,"Ġ\\\\":5655,"ĠAut":5656,"ecimal":5657,"Ġusually":5658,"Ġdeath":5659,"Ġdeeper":5660,"Ġhere":5661,"çĶ¨çļĦ":5662,"Ġ36":5663,"aps":5664,"Ġroll":5665,"åı¯ä»¥åľ¨":5666,"Ġinstit":5667,"åĮħåĲ«":5668,"nums":5669,"æ²¡":5670,"éĽĨåĽ¢":5671,"æĦŁåħ´è¶£":5672,"Ġrecognize":5673,"Ġsustainability":5674,"Ġ2021":5675,"çģµæ´»":5676,"Ġdistinct":5677,"split":5678,"ufact":5679,"width":5680,"å¨":5681,"itch":5682,"Ġmiles":5683,"Ġbo":5684,"Ġstream":5685,"ĠCalcul":5686,"Ġalphanumeric":5687,"duc":5688,"Ġweight":5689,"ruction":5690,"Ġjoy":5691,"Ġmembers":5692,"Ġdelves":5693,"Ġdescript":5694,"éĺ¿éĩĮå·´å·´äºĳ":5695,"ä¼łç»Ł":5696,"Ġmeaningful":5697,"è§£åĨ³æĸ¹æ¡Ī":5698,"Ġreasons":5699,"uisine":5700,"ç»§ç»Ń":5701,"\"**":5702,"flow":5703,"gram":5704,"now":5705,"æ¹":5706,"Ġtown":5707,"Ġground":5708,"abet":5709,"Ġexists":5710,"Ġ\"__":5711,"artments":5712,"Ġimplications":5713,"orders":5714,"Ġactivity":5715,"Ġdocuments":5716,"Ġdocumentation":5717,"ĠEuropean":5718,"çĬ¶æĢģ":5719,"Ġconsistent":5720,"Ġvibrant":5721,"æ²¡æľī":5722,"JOIN":5723,"Main":5724,"smallest":5725,"Ġ.":5726,"Ġslope":5727,"Ġcourses":5728,"Ġliving":5729,"iful":5730,"uration":5731,"Ġimm":5732,"åºŃ":5733,"ĠLinux":5734,"ĠNot":5735,"æĿ¾":5736,"æ´ģ":5737,"espite":5738,"Ġfinance":5739,"Ġplanning":5740,"Ġestim":5741,"Ġbalance":5742,"Ġmanager":5743,"Ġguidelines":5744,"èĩªçĦ¶è¯Ńè¨Ģ":5745,"Ġetc":5746,"åŁİå¸Ĥ":5747,"book":5748,"dx":5749,"ji":5750,"ylabel":5751,"erate":5752,"Ġopp":5753,"Ġreach":5754,"ived":5755,"Ġcontact":5756,"Ġtransfer":5757,"ĠProcessing":5758,"__\":":5759,"Ġorigin":5760,"matplotlib":5761,"å®ĥä»¬":5762,"æŁ¥è¯¢":5763,"ĠSpec":5764,"Ġlandsc":5765,"ography":5766,"Ġsounds":5767,"éģĩåĪ°":5768,"Res":5769,"check":5770,"pmatrix":5771,"ĠTuring":5772,"ĠPe":5773,"Ġexplicit":5774,"Ġheav":5775,"ĠGree":5776,"å¼Ĥ":5777,"Ġable":5778,"è§Ĵ":5779,"aste":5780,"Ġ{'":5781,"Ġautumn":5782,"å®¶åºŃ":5783,"Ġshared":5784,"ä»·åĢ¼":5785,"Ġseasons":5786,"ensorFlow":5787,"Ġtangent":5788,"():":5789,"Bob":5790,"Code":5791,"Windows":5792,"`).":5793,"xlabel":5794,"ym":5795,"era":5796,"Ġsince":5797,"Ġglow":5798,"ĠCase":5799,"Ġ27":5800,"estry":5801,"index":5802,"ocial":5803,"ä¸ĭè½½":5804,"ä¸ĬçļĦ":5805,"Ġbuy":5806,"rtificial":5807,"ternal":5808,"Ġmarketing":5809,"Ġvideos":5810,"æııè¿°":5811,"reducing":5812,"GROUP":5813,"IT":5814,"do":5815,"}\\)":5816,"æ¢":5817,"erns":5818,"Ġsou":5819,"Ġsist":5820,"ised":5821,"itz":5822,"Ġmot":5823,"ĠHist":5824,"ĠNational":5825,"Ġabove":5826,"Ġapart":5827,"Ġinstant":5828,"Ġexploration":5829,"Ġmyster":5830,"æĪĳä»¬":5831,"Ġattacks":5832,"åŁºäºİ":5833,"Ġrelease":5834,"rench":5835,"appro":5836,"Ġextra":5837,"mathb":5838,"è´Ńä¹°":5839,"Ġscenari":5840,"dat":5841,"li":5842,"ura":5843,"å¡":5844,"æ½":5845,"ĠðŁ":5846,"orian":5847,"Ġreve":5848,"Ġforce":5849,"ivil":5850,"Ġgame":5851,"éĢĲ":5852,"æĪĲåĳĺ":5853,"Ġrelig":5854,"åĵª":5855,"å¸¸è§ģ":5856,"çĽ®å½ķ":5857,"äº¤éĢļ":5858,"çĶµåŃĲ":5859,"é¢ĨåŁŁçļĦ":5860,"å¤ĩä»½":5861,"Ġavailability":5862,"Compute":5863,"Creating":5864,"Learning":5865,"Product":5866,"Ġlegal":5867,"Ġtuples":5868,"ĠECS":5869,"xygen":5870,"Find":5871,"ault":5872,"ians":5873,"inks":5874,"enge":5875,"Ġdice":5876,"Ġdie":5877,"Ġeither":5878,"å¤´":5879,"æĢ»":5880,"Ġfinding":5881,"oney":5882,"æŃ¢":5883,"planations":5884,"Ġinstead":5885,"Ġoption":5886,"Ġrefers":5887,"Charlie":5888,"è¿ĩç¨ĭä¸Ń":5889,"Ġconversations":5890,"ĠAssume":5891,"Ġcircuit":5892,"Ġexactly":5893,"Ġtapestry":5894,"opt":5895,"pip":5896,"ued":5897,"isco":5898,"Ġfour":5899,"Ġtoo":5900,"çļĦéľĢæ±Ĥ":5901,"tection":5902,"Ġcompression":5903,"Ġexpansion":5904,"æ¡Ĩ":5905,"Ġtrees":5906,"Ġdrive":5907,"Ġemotional":5908,"Ġcommunicate":5909,"coordinate":5910,"())":5911,"Cons":5912,"ON":5913,"SD":5914,"mer":5915,"Ġswe":5916,"Ġframew":5917,"Ġbright":5918,"ĠCity":5919,"seen":5920,"query":5921,"ĠMany":5922,"ĠWindows":5923,"èĥ½å¸®åĬ©ä½ł":5924,"ĠNo":5925,"ruit":5926,"Ġunus":5927,"ithmetic":5928,"Ġpolitical":5929,"Ġanalyze":5930,"Ġdemonstrates":5931,"Ġduplicates":5932,"å®ĺæĸ¹":5933,"Open":5934,"div":5935,"ged":5936,"æ¼":5937,"Ġtheory":5938,"**.":5939,"Ġfon":5940,"Ġstar":5941,"Ġexplanations":5942,"ĠHis":5943,"åĲĪçĲĨ":5944,"Ġsmooth":5945,"Ġactual":5946,"Ġpromote":5947,"ĠControl":5948,"Ġattributes":5949,"å½ĵçĦ¶åı¯ä»¥":5950,"Mod":5951,"making":5952,"Ġpunctuation":5953,"Ġban":5954,"Ġund":5955,"Ġcanvas":5956,"äºĮ":5957,"Ġalter":5958,"Ġbegan":5959,"Ġhex":5960,"Ġimmedi":5961,"Ġincluded":5962,"ĠOn":5963,"Ġnotable":5964,"Ġrad":5965,"Ġraise":5966,"Ġ''.":5967,"Ġdesired":5968,"phony":5969,"ĠString":5970,"Ġnetworking":5971,"Ġdecre":5972,"Ġparalle":5973,"Ġmedian":5974,"Ġrequests":5975,"Ġprotocol":5976,"evens":5977,"é¼ĵ":5978,"ç¿»":5979,"IS":5980,"PT":5981,"frequ":5982,"pers":5983,"æ¿":5984,"ç¦":5985,"çĪ":5986,"Ġnp":5987,"Ġstability":5988,"Ġ`'":5989,"åıª":5990,"ĠFe":5991,"ĠMicrosoft":5992,"å°½":5993,"Ġdifferences":5994,"Ġtransformation":5995,"Ġconsensus":5996,"obile":5997,"æĪĳæĥ³äºĨè§£ä¸Ģä¸ĭ":5998,"Ġauthent":5999,"æłĩçŃ¾":6000,"Ġpersonalized":6001,"Ġrespond":6002,"éĩįè¦ģçļĦ":6003,"Ġrecognition":6004,"Ġstrategic":6005,"Ġnarrative":6006,"Ġinfluenced":6007,"é¼ĵåĬ±":6008,"Let":6009,"Name":6010,"dom":6011,"dent":6012,"Ġhyp":6013,"idi":6014,"ĠINT":6015,"istr":6016,"ĠPan":6017,"Ġchat":6018,"Ġmode":6019,"Ġmanufact":6020,"åŃ¦çĶŁ":6021,"Ġmyst":6022,"Ġmarkets":6023,"Ġstartup":6024,"Ġconsidering":6025,"Ġgrace":6026,"ursive":6027,"è½¬æį¢":6028,"Ġhappy":6029,"Ġtransparent":6030,"Ġsymphony":6031,"æ¿Ģ":6032,"AN":6033,"¥¿":6034,"è¥¿":6035,"Ġdog":6036,"ctu":6037,"Ġreplace":6038,"Ġsty":6039,"Ġleverage":6040,"Ġplant":6041,"Ġintelligent":6042,"Ġoutside":6043,"Ġentangled":6044,"Ġdatasets":6045,"éĺ¿éĩĮå·´å·´éĽĨåĽ¢":6046,"ĠTranslation":6047,"Ġpreferences":6048,"æ¬¢è¿İéļıæĹ¶":6049,"ç¤¾äº¤åªĴä½ĵ":6050,"éĺħè¯»":6051,"Ġunusual":6052,"Sales":6053,"])":6054,"aks":6055,"lambda":6056,"reed":6057,"Ġbud":6058,"Ġlot":6059,"uting":6060,"ĠCo":6061,"ĠEfficiency":6062,"pha":6063,"Ġkeys":6064,"éĢīé¡¹":6065,"Ġoperates":6066,"ĠProof":6067,"Ġminutes":6068,"äº¤æµģ":6069,"Ġaccept":6070,"ublic":6071,"çĶµèĦĳ":6072,"Ġdivision":6073,"ugust":6074,"Ġarticle":6075,"ĠEgyptian":6076,"...":6077,"DPR":6078,"Ġshadows":6079,"Ġdecentralized":6080,"200":6081,"sub":6082,"vol":6083,"Ġing":6084,"Ġä½¿çĶ¨":6085,"Ġaff":6086,"onom":6087,"iform":6088,"ĠCelsius":6089,"ĠSy":6090,"ifications":6091,"ĠMethod":6092,"lude":6093,"ĠNick":6094,"ä½¿å¾Ĺ":6095,"åį¡":6096,"è´£":6097,"Ġadded":6098,"Ġfilled":6099,"åĪĨç±»":6100,"ç«ŀ":6101,"åħ³æ³¨":6102,"Ġidentifying":6103,"è¿ĺèĥ½":6104,"Ġclos":6105,"èĬĤçĤ¹":6106,"æİ§åĪ¶åı°":6107,"Ġdescribe":6108,"Ġcoefficients":6109,"\"?":6110,"NLP":6111,"Tra":6112,"VG":6113,"onge":6114,"ask":6115,"rained":6116,"ategy":6117,"Ġongoing":6118,"Ġ23":6119,"ç»ĩ":6120,"Ġresolution":6121,"Ġunf":6122,"Ġprejud":6123,"Ġmanner":6124,"Ġcompute":6125,"æĬĢèĥ½":6126,"ployment":6127,"Ġsubt":6128,"Ġstores":6129,"__`":6130,"ĠTokyo":6131,"Ġbeautiful":6132,"Ġexplaining":6133,"Ġmechanics":6134,"å¸¦æĿ¥":6135,"calculate":6136,"txt":6137,"ĠéĢīæĭ©":6138,"Ġchem":6139,"Ġperm":6140,"Ġmiddle":6141,"Ġlive":6142,"çļĦåıĳå±ķ":6143,"ulner":6144,"ĠIterate":6145,"ĠAg":6146,"umber":6147,"ĠInc":6148,"è´¢":6149,"Ġgoods":6150,"Ġdigit":6151,"Ġprotecting":6152,"Ġchallenge":6153,"æµģç¨ĭ":6154,"Google":6155,"èĬ±":6156,"Web":6157,"etermine":6158,"Ġcommitment":6159,"æĴŃ":6160,"æķħäºĭ":6161,"\"{":6162,"90":6163,"My":6164,"rors":6165,"wide":6166,"Ġste":6167,"ĠAf":6168,"Ġangle":6169,"ĠDel":6170,"ĠDespite":6171,"Ġteaching":6172,"æĹħ":6173,"console":6174,"obb":6175,"ĠComput":6176,"Ġconcerns":6177,"Ġstudy":6178,"èĮ¶":6179,"Ġcells":6180,"æ»¡è¶³":6181,"Ġmalicious":6182,"Ġliterature":6183,"éĻįä½İ":6184,"çªģ":6185,"Ġleveraging":6186,"AS":6187,"Red":6188,"SU":6189,"known":6190,"Ġcivil":6191,"Ġocean":6192,"Ġfive":6193,"Ġthings":6194,"çļĦéĩįè¦ģ":6195,"idge":6196,"Ġ`__":6197,"ĠSm":6198,"add":6199,"ĠDorian":6200,"åŃ©":6201,"Ġrain":6202,"Ġarithmetic":6203,"ä¸Ńå¿ĥ":6204,"Ġprocessed":6205,"axCompute":6206,"Ġdatetime":6207,"åĪ¶å®ļ":6208,"Ġ196":6209,"Ġstarted":6210,"Ġvisit":6211,"Ġdelivery":6212,"iversity":6213,"åĽłä¸º":6214,"Ġsafety":6215,"åħ±åĲĮ":6216,"ĠQuantum":6217,"ĠInternational":6218,"èĥĮ":6219,"Ġdirection":6220,"Ġfootprint":6221,"22":6222,"80":6223,"çĭ":6224,"Ġfu":6225,"Ġbound":6226,"Ġbelow":6227,"Ġbold":6228,"Ġisol":6229,"ĠTime":6230,"çļĦè¿ĩç¨ĭ":6231,"ĠAugust":6232,"plied":6233,"Ġascending":6234,"ustr":6235,"osed":6236,"phabet":6237,"è´Ł":6238,"äººç±»":6239,"Ġinternal":6240,"ç¼©":6241,"è¯ŃéŁ³":6242,"Ġconverting":6243,"Ġinside":6244,"Ġcontrols":6245,"Ġsymbolizing":6246,"Ġfocusing":6247,"ĠAsia":6248,"Ġresponsible":6249,"è¯·æ±Ĥ":6250,"stituting":6251,"Ġcatch":6252,"æĮīéĴ":6253,"Ġconnected":6254,"æĺ¾ç¤º":6255,"Ġexisting":6256,"åĩłä¸ª":6257,"éĤ®":6258,"Define":6259,"Ġrectangle":6260,"Ġaccompl":6261,"çĻ»å½ķ":6262,"ĠGreek":6263,"æĮīéĴ®":6264,"Avoid":6265,"LE":6266,"TS":6267,"Test":6268,"Val":6269,"fort":6270,"âĤ":6271,"Ġcub":6272,"ishes":6273,"itude":6274,"Ġeco":6275,"root":6276,"uth":6277,"iginal":6278,"Ġgl":6279,"ably":6280,"ĠSer":6281,"åĴĮåºĶçĶ¨":6282,"ĠInter":6283,"Ġdishes":6284,"Ġ2010":6285,"æ³ķè§Ħ":6286,"Ġbreaches":6287,"Ġengage":6288,"Ġdiscovery":6289,"Ġreflects":6290,"ĠFinally":6291,"çīĪæľ¬":6292,"Ġfostering":6293,"å·²ç»ı":6294,"Ġinformed":6295,"çŁŃ":6296,"Ġrestaurant":6297,"åĲ¸å¼ķ":6298,"Ġtouch":6299,"æ½ľ":6300,")}":6301,"Po":6302,"att":6303,"Ġwar":6304,"ager":6305,"Ġdesert":6306,"è¿ĻéĩĮ":6307,"Ġsettings":6308,"æĽ´åħ·ä½ĵ":6309,"Ġresulting":6310,"æıĲä¾ĽåķĨ":6311,"æłĩåĩĨ":6312,"ĠAlso":6313,"Ġspeech":6314,"éĢŁåº¦":6315,"Ġrepresented":6316,"ä»·æł¼":6317,"Ġmovie":6318,"è´¦æĪ·":6319,"æĺ¾èĳĹ":6320,"èĩªçĦ¶è¯Ńè¨Ģå¤ĦçĲĨ":6321,"Personal":6322,"rist":6323,"ç¯":6324,"etes":6325,"ĠCar":6326,"izz":6327,"Ġnear":6328,"loc":6329,"nthes":6330,"ĠWar":6331,"agon":6332,"arian":6333,"ubern":6334,"Ġadding":6335,"Ġequations":6336,"æĪĸèĢħ":6337,"è®¡åĪĴ":6338,"Ġhands":6339,"Ġdistances":6340,"æ¸©":6341,"Ġwidth":6342,"Ġproduction":6343,"intercept":6344,"Ġeyes":6345,"Ġadvantage":6346,"Ġscenarios":6347,"ĠAfric":6348,"åŃ©åŃĲ":6349,"ubernetes":6350,"Delta":6351,"Educ":6352,"é¸":6353,"rem":6354,"Ġpiv":6355,"ounce":6356,"Ġcanal":6357,"Ġprob":6358,"ĠPerformance":6359,"ĠFrench":6360,"Ġrates":6361,"Ġround":6362,"è®¨":6363,"ĠDes":6364,"åı¯ä»¥å¸®åĬ©":6365,"Ġtransition":6366,"åĪĨå¸ĥ":6367,"å®ŀæĹ¶":6368,"alindromes":6369,"prehens":6370,"Ġpublished":6371,"Ġsave":6372,"Ġoptimized":6373,"ĠContent":6374,"mean":6375,"Ġtransparency":6376,"Ġbrowser":6377,"Ġmolecules":6378,"ole":6379,"alf":6380,"ĠĠĠĠĠĠĠĠ":6381,"ĠMay":6382,"ĠNetwork":6383,"ĠChart":6384,"éĺ³":6385,"ĠJul":6386,"æľºæŀĦ":6387,"Ġreduces":6388,"Ġdefines":6389,"Ġdictionaries":6390,"åģı":6391,"Ġconstruct":6392,"Ġdiscrim":6393,"æ¶ī":6394,"ĠZh":6395,"Ġfaster":6396,"ĠApproximately":6397,"Ġinstitutions":6398,"ĠPanama":6399}